{
  "version": "1.0",
  "truncation": null,
  "padding": null,
  "added_tokens": [
    {
      "id": 0,
      "content": "[PAD]",
      "single_word": false,
      "lstrip": false,
      "rstrip": false,
      "normalized": false,
      "special": true
    },
    {
      "id": 1,
      "content": "[UNK]",
      "single_word": false,
      "lstrip": false,
      "rstrip": false,
      "normalized": false,
      "special": true
    },
    {
      "id": 2,
      "content": "[SOS]",
      "single_word": false,
      "lstrip": false,
      "rstrip": false,
      "normalized": false,
      "special": true
    },
    {
      "id": 3,
      "content": "[EOS]",
      "single_word": false,
      "lstrip": false,
      "rstrip": false,
      "normalized": false,
      "special": true
    }
  ],
  "normalizer": {
    "type": "Sequence",
    "normalizers": [
      {
        "type": "Lowercase"
      }
    ]
  },
  "pre_tokenizer": {
    "type": "Whitespace"
  },
  "post_processor": {
    "type": "TemplateProcessing",
    "single": [
      {
        "SpecialToken": {
          "id": "[SOS]",
          "type_id": 0
        }
      },
      {
        "Sequence": {
          "id": "A",
          "type_id": 0
        }
      },
      {
        "SpecialToken": {
          "id": "[EOS]",
          "type_id": 0
        }
      }
    ],
    "pair": [
      {
        "Sequence": {
          "id": "A",
          "type_id": 0
        }
      },
      {
        "Sequence": {
          "id": "B",
          "type_id": 1
        }
      }
    ],
    "special_tokens": {
      "[EOS]": {
        "id": "[EOS]",
        "ids": [
          3
        ],
        "tokens": [
          "[EOS]"
        ]
      },
      "[SOS]": {
        "id": "[SOS]",
        "ids": [
          2
        ],
        "tokens": [
          "[SOS]"
        ]
      }
    }
  },
  "decoder": {
    "type": "WordPiece",
    "prefix": "##",
    "cleanup": true
  },
  "model": {
    "type": "WordPiece",
    "unk_token": "[UNK]",
    "continuing_subword_prefix": "##",
    "max_input_chars_per_word": 100,
    "vocab": {
      "[PAD]": 0,
      "[UNK]": 1,
      "[SOS]": 2,
      "[EOS]": 3,
      "'": 4,
      ",": 5,
      "-": 6,
      ".": 7,
      "a": 8,
      "b": 9,
      "c": 10,
      "d": 11,
      "e": 12,
      "f": 13,
      "g": 14,
      "h": 15,
      "i": 16,
      "j": 17,
      "k": 18,
      "l": 19,
      "m": 20,
      "n": 21,
      "o": 22,
      "p": 23,
      "q": 24,
      "r": 25,
      "s": 26,
      "t": 27,
      "u": 28,
      "v": 29,
      "w": 30,
      "x": 31,
      "y": 32,
      "z": 33,
      "##o": 34,
      "##g": 35,
      "##y": 36,
      "##u": 37,
      "##s": 38,
      "##t": 39,
      "##h": 40,
      "##e": 41,
      "##r": 42,
      "##a": 43,
      "##p": 44,
      "##n": 45,
      "##d": 46,
      "##v": 47,
      "##c": 48,
      "##m": 49,
      "##l": 50,
      "##i": 51,
      "##w": 52,
      "##k": 53,
      "##f": 54,
      "##b": 55,
      "##x": 56,
      "##q": 57,
      "##z": 58,
      "##.": 59,
      "##j": 60,
      "##,": 61,
      "##-": 62,
      "##'": 63,
      "##in": 64,
      "##ing": 65,
      "##it": 66,
      "##er": 67,
      "##an": 68,
      "th": 69,
      "on": 70,
      "##le": 71,
      "##at": 72,
      "the": 73,
      "of": 74,
      "##ar": 75,
      "in": 76,
      "an": 77,
      "##re": 78,
      "##ith": 79,
      "with": 80,
      "##ro": 81,
      "##en": 82,
      "and": 83,
      "##al": 84,
      "##ed": 85,
      "to": 86,
      "st": 87,
      "##om": 88,
      "##es": 89,
      "##ding": 90,
      "##as": 91,
      "##on": 92,
      "##ow": 93,
      "##ck": 94,
      "is": 95,
      "##et": 96,
      "##or": 97,
      "##ir": 98,
      "##ch": 99,
      "##ou": 100,
      "##is": 101,
      "man": 102,
      "##la": 103,
      "##op": 104,
      "##ting": 105,
      "sit": 106,
      "##all": 107,
      "##ra": 108,
      "##el": 109,
      "##oo": 110,
      "##il": 111,
      "##id": 112,
      "ne": 113,
      "##ot": 114,
      "wh": 115,
      "##ers": 116,
      "##ol": 117,
      "##rou": 118,
      "stan": 119,
      "sitting": 120,
      "##ig": 121,
      "##ge": 122,
      "are": 123,
      "##ut": 124,
      "tw": 125,
      "##ic": 126,
      "two": 127,
      "##ard": 128,
      "##ab": 129,
      "at": 130,
      "##king": 131,
      "bu": 132,
      "pe": 133,
      "##ite": 134,
      "sk": 135,
      "be": 136,
      "##ying": 137,
      "standing": 138,
      "##ide": 139,
      "peop": 140,
      "people": 141,
      "tra": 142,
      "##eb": 143,
      "##ur": 144,
      "##oard": 145,
      "wom": 146,
      "##ad": 147,
      "##xt": 148,
      "##able": 149,
      "sh": 150,
      "next": 151,
      "white": 152,
      "##ver": 153,
      "it": 154,
      "##nt": 155,
      "woman": 156,
      "ro": 157,
      "##nd": 158,
      "pla": 159,
      "##ass": 160,
      "##ff": 161,
      "pl": 162,
      "##ile": 163,
      "hol": 164,
      "##lo": 165,
      "table": 166,
      "stre": 167,
      "ch": 168,
      "do": 169,
      "cou": 170,
      "street": 171,
      "##ome": 172,
      "fi": 173,
      "fro": 174,
      "##ood": 175,
      "bo": 176,
      "that": 177,
      "##her": 178,
      "par": 179,
      "holding": 180,
      "##ce": 181,
      "##am": 182,
      "some": 183,
      "top": 184,
      "##own": 185,
      "grou": 186,
      "sm": 187,
      "##ate": 188,
      "##se": 189,
      "pers": 190,
      "person": 191,
      "##ack": 192,
      "la": 193,
      "bat": 194,
      "lar": 195,
      "large": 196,
      "##ant": 197,
      "##ach": 198,
      "##ri": 199,
      "gir": 200,
      "down": 201,
      "cat": 202,
      "wat": 203,
      "##and": 204,
      "up": 205,
      "pi": 206,
      "fl": 207,
      "group": 208,
      "##eld": 209,
      "sn": 210,
      "##ve": 211,
      "##ion": 212,
      "ri": 213,
      "car": 214,
      "##ru": 215,
      "dog": 216,
      "out": 217,
      "##ng": 218,
      "##igh": 219,
      "field": 220,
      "snow": 221,
      "near": 222,
      "##ke": 223,
      "small": 224,
      "ten": 225,
      "clo": 226,
      "##nis": 227,
      "train": 228,
      "##ign": 229,
      "bla": 230,
      "his": 231,
      "wal": 232,
      "tennis": 233,
      "front": 234,
      "black": 235,
      "##ul": 236,
      "##ee": 237,
      "park": 238,
      "gr": 239,
      "bus": 240,
      "bas": 241,
      "sur": 242,
      "##ree": 243,
      "##room": 244,
      "##row": 245,
      "sign": 246,
      "##ain": 247,
      "##ell": 248,
      "room": 249,
      "plate": 250,
      "re": 251,
      "##ure": 252,
      "riding": 253,
      "##ay": 254,
      "##ind": 255,
      "##ple": 256,
      "bl": 257,
      "you": 258,
      "air": 259,
      "side": 260,
      "grass": 261,
      "kit": 262,
      "red": 263,
      "ph": 264,
      "young": 265,
      "se": 266,
      "water": 267,
      "by": 268,
      "##ight": 269,
      "##ue": 270,
      "loo": 271,
      "bath": 272,
      "##round": 273,
      "##ent": 274,
      "##one": 275,
      "surf": 276,
      "##st": 277,
      "##ving": 278,
      "##board": 279,
      "buil": 280,
      "##ph": 281,
      "##ss": 282,
      "##eball": 283,
      "baseball": 284,
      "bed": 285,
      "building": 286,
      "##side": 287,
      "##reen": 288,
      "##ink": 289,
      "skat": 290,
      "##air": 291,
      "has": 292,
      "play": 293,
      "com": 294,
      "while": 295,
      "playing": 296,
      "walking": 297,
      "##ere": 298,
      "##pt": 299,
      "skateb": 300,
      "bathroom": 301,
      "##mb": 302,
      "su": 303,
      "##zz": 304,
      "##yc": 305,
      "for": 306,
      "food": 307,
      "##ds": 308,
      "hor": 309,
      "co": 310,
      "blue": 311,
      "pizz": 312,
      "##ct": 313,
      "her": 314,
      "##chen": 315,
      "kitchen": 316,
      "ot": 317,
      "##age": 318,
      "##aring": 319,
      "mot": 320,
      "skateboard": 321,
      "##ycle": 322,
      "back": 323,
      "wood": 324,
      "green": 325,
      "li": 326,
      "po": 327,
      "ele": 328,
      "##aff": 329,
      "there": 330,
      "##irt": 331,
      "giraff": 332,
      "boy": 333,
      "pizza": 334,
      "parked": 335,
      "##gh": 336,
      "other": 337,
      "##ie": 338,
      "ball": 339,
      "ski": 340,
      "looking": 341,
      "motor": 342,
      "##im": 343,
      "##ture": 344,
      "over": 345,
      "beach": 346,
      "##get": 347,
      "##ity": 348,
      "eat": 349,
      "we": 350,
      "clock": 351,
      "ben": 352,
      "##ilet": 353,
      "toilet": 354,
      "bear": 355,
      "couple": 356,
      "##tle": 357,
      "##phant": 358,
      "pic": 359,
      "elephant": 360,
      "des": 361,
      "girl": 362,
      "##ran": 363,
      "ca": 364,
      "three": 365,
      "men": 366,
      "road": 367,
      "con": 368,
      "##rel": 369,
      "##ild": 370,
      "wa": 371,
      "##ame": 372,
      "##ane": 373,
      "comp": 374,
      "picture": 375,
      "city": 376,
      "##led": 377,
      "mou": 378,
      "umb": 379,
      "dis": 380,
      "motorc": 381,
      "umbrel": 382,
      "flying": 383,
      "al": 384,
      "##lass": 385,
      "board": 386,
      "##cks": 387,
      "bench": 388,
      "wearing": 389,
      "tow": 390,
      "##ill": 391,
      "le": 392,
      "sl": 393,
      "##dy": 394,
      "##ris": 395,
      "motorcycle": 396,
      "player": 397,
      "##ld": 398,
      "lapt": 399,
      "laptop": 400,
      "wind": 401,
      "tru": 402,
      "int": 403,
      "game": 404,
      "##ine": 405,
      "##ore": 406,
      "sever": 407,
      "several": 408,
      "zeb": 409,
      "child": 410,
      "laying": 411,
      "comput": 412,
      "from": 413,
      "##ong": 414,
      "as": 415,
      "sits": 416,
      "##rown": 417,
      "sand": 418,
      "wooden": 419,
      "##sh": 420,
      "##um": 421,
      "##rough": 422,
      "window": 423,
      "sink": 424,
      "glass": 425,
      "airp": 426,
      "gra": 427,
      "area": 428,
      "one": 429,
      "##nder": 430,
      "##ter": 431,
      "through": 432,
      "their": 433,
      "##ping": 434,
      "op": 435,
      "he": 436,
      "boat": 437,
      "wall": 438,
      "brown": 439,
      "fris": 440,
      "chair": 441,
      "frisb": 442,
      "de": 443,
      "around": 444,
      "##ellow": 445,
      "horse": 446,
      "old": 447,
      "eating": 448,
      "yellow": 449,
      "##ks": 450,
      "sc": 451,
      "##un": 452,
      "cake": 453,
      "##ase": 454,
      "stop": 455,
      "light": 456,
      "##ice": 457,
      "hand": 458,
      "ta": 459,
      "computer": 460,
      "phone": 461,
      "bir": 462,
      "frisbee": 463,
      "##ped": 464,
      "lit": 465,
      "##oto": 466,
      "photo": 467,
      "giraffe": 468,
      "desk": 469,
      "under": 470,
      "##ort": 471,
      "##ery": 472,
      "ve": 473,
      "cover": 474,
      "open": 475,
      "##ast": 476,
      "ra": 477,
      "close": 478,
      "sp": 479,
      "outside": 480,
      "##ull": 481,
      "##way": 482,
      "living": 483,
      "truck": 484,
      "tre": 485,
      "##rt": 486,
      "sw": 487,
      "fire": 488,
      "##cc": 489,
      "te": 490,
      "flo": 491,
      "ban": 492,
      "##ross": 493,
      "col": 494,
      "##est": 495,
      "lot": 496,
      "##ses": 497,
      "surfboard": 498,
      "##ag": 499,
      "bow": 500,
      "umbrella": 501,
      "di": 502,
      "bun": 503,
      "##ove": 504,
      "count": 505,
      "covered": 506,
      "trees": 507,
      "tree": 508,
      "cow": 509,
      "##acket": 510,
      "each": 511,
      "##ation": 512,
      "many": 513,
      "##ady": 514,
      "##illed": 515,
      "##ich": 516,
      "cell": 517,
      "##gg": 518,
      "##ap": 519,
      "fe": 520,
      "banan": 521,
      "this": 522,
      "very": 523,
      "suit": 524,
      "beh": 525,
      "behind": 526,
      "bowl": 527,
      "##eep": 528,
      "oran": 529,
      "##sing": 530,
      "cl": 531,
      "off": 532,
      "filled": 533,
      "court": 534,
      "##ground": 535,
      "little": 536,
      "##pla": 537,
      "sky": 538,
      "cut": 539,
      "cont": 540,
      "ab": 541,
      "its": 542,
      "flow": 543,
      "ap": 544,
      "##ves": 545,
      "##up": 546,
      "show": 547,
      "fen": 548,
      "into": 549,
      "##gether": 550,
      "couch": 551,
      "together": 552,
      "##ction": 553,
      "##ors": 554,
      "kite": 555,
      "sandw": 556,
      "##qu": 557,
      "##if": 558,
      "sandwich": 559,
      "##iew": 560,
      "airpl": 561,
      "bunch": 562,
      "bi": 563,
      "shirt": 564,
      "mount": 565,
      "run": 566,
      "##ly": 567,
      "background": 568,
      "view": 569,
      "so": 570,
      "dri": 571,
      "##rick": 572,
      "inside": 573,
      "##alk": 574,
      "ma": 575,
      "skis": 576,
      "dou": 577,
      "big": 578,
      "watch": 579,
      "sheep": 580,
      "me": 581,
      "mir": 582,
      "mirro": 583,
      "stands": 584,
      "pre": 585,
      "##les": 586,
      "##ts": 587,
      "mirror": 588,
      "displa": 589,
      "hot": 590,
      "##ets": 591,
      "oce": 592,
      "stu": 593,
      "ocean": 594,
      "bird": 595,
      "##walk": 596,
      "pie": 597,
      "##ub": 598,
      "hy": 599,
      "##ffic": 600,
      "go": 601,
      "counter": 602,
      "lu": 603,
      "##ry": 604,
      "##rant": 605,
      "hyd": 606,
      "traffic": 607,
      "veget": 608,
      "##ang": 609,
      "zebra": 610,
      "hydrant": 611,
      "##ras": 612,
      "mid": 613,
      "swing": 614,
      "pass": 615,
      "airplane": 616,
      "fence": 617,
      "ted": 618,
      "##orm": 619,
      "racket": 620,
      "teddy": 621,
      "display": 622,
      "floor": 623,
      "##dle": 624,
      "##do": 625,
      "##other": 626,
      "hill": 627,
      "vegetable": 628,
      "##ment": 629,
      "ref": 630,
      "orange": 631,
      "wi": 632,
      "##ook": 633,
      "diff": 634,
      "head": 635,
      "women": 636,
      "differ": 637,
      "##oth": 638,
      "another": 639,
      "dirt": 640,
      "different": 641,
      "anim": 642,
      "sidewalk": 643,
      "##ner": 644,
      "##ies": 645,
      "animal": 646,
      "plane": 647,
      "mountain": 648,
      "stand": 649,
      "##ress": 650,
      "##iling": 651,
      "wave": 652,
      "che": 653,
      "tall": 654,
      "jum": 655,
      "flowers": 656,
      "tower": 657,
      "##etting": 658,
      "##our": 659,
      "bab": 660,
      "##ruit": 661,
      "met": 662,
      "tracks": 663,
      "vase": 664,
      "parking": 665,
      "horses": 666,
      "fruit": 667,
      "sa": 668,
      "bro": 669,
      "hit": 670,
      "giraffes": 671,
      "cars": 672,
      "plat": 673,
      "br": 674,
      "gu": 675,
      "along": 676,
      "im": 677,
      "baby": 678,
      "##ace": 679,
      "day": 680,
      "mo": 681,
      "ground": 682,
      "vegetables": 683,
      "##vel": 684,
      "##ous": 685,
      "tie": 686,
      "snowboard": 687,
      "graz": 688,
      "grassy": 689,
      "hang": 690,
      "##ble": 691,
      "being": 692,
      "full": 693,
      "##ope": 694,
      "##ket": 695,
      "ad": 696,
      "zebras": 697,
      "##amp": 698,
      "elephants": 699,
      "stuff": 700,
      "rest": 701,
      "##ren": 702,
      "station": 703,
      "##ari": 704,
      "bananas": 705,
      "##rying": 706,
      "##ey": 707,
      "middle": 708,
      "##ated": 709,
      "##kes": 710,
      "##ven": 711,
      "un": 712,
      "cup": 713,
      "##ick": 714,
      "dress": 715,
      "ready": 716,
      "image": 717,
      "en": 718,
      "pro": 719,
      "##ave": 720,
      "dr": 721,
      "vari": 722,
      "four": 723,
      "##ip": 724,
      "taking": 725,
      "box": 726,
      "##em": 727,
      "crow": 728,
      "hat": 729,
      "signs": 730,
      "cor": 731,
      "them": 732,
      "##ator": 733,
      "##uring": 734,
      "bike": 735,
      "##eth": 736,
      "driving": 737,
      "slope": 738,
      "bes": 739,
      "stuffed": 740,
      "##th": 741,
      "##ac": 742,
      "sun": 743,
      "cross": 744,
      "##oli": 745,
      "crowd": 746,
      "##ade": 747,
      "catch": 748,
      "ac": 749,
      "##ning": 750,
      "##rol": 751,
      "##ult": 752,
      "piece": 753,
      "wine": 754,
      "cam": 755,
      "above": 756,
      "lo": 757,
      "long": 758,
      "ar": 759,
      "##iger": 760,
      "##ess": 761,
      "brocc": 762,
      "wor": 763,
      "lugg": 764,
      "##rush": 765,
      "guy": 766,
      "broccoli": 767,
      "luggage": 768,
      "across": 769,
      "grazing": 770,
      "cows": 771,
      "travel": 772,
      "kn": 773,
      "prep": 774,
      "beside": 775,
      "refr": 776,
      "bot": 777,
      "skiing": 778,
      "skate": 779,
      "##ust": 780,
      "em": 781,
      "refriger": 782,
      "kid": 783,
      "snowy": 784,
      "##era": 785,
      "key": 786,
      "hanging": 787,
      "##uts": 788,
      "door": 789,
      "don": 790,
      "##elf": 791,
      "wii": 792,
      "during": 793,
      "color": 794,
      "refrigerator": 795,
      "##iting": 796,
      "tele": 797,
      "bic": 798,
      "##ath": 799,
      "##cor": 800,
      "glasses": 801,
      "holds": 802,
      "bag": 803,
      "##eng": 804,
      "cle": 805,
      "past": 806,
      "pink": 807,
      "camera": 808,
      "children": 809,
      "##urn": 810,
      "doing": 811,
      "##las": 812,
      "rem": 813,
      "herd": 814,
      "tal": 815,
      "##ten": 816,
      "##ese": 817,
      "##ak": 818,
      "pair": 819,
      "##ted": 820,
      "buildings": 821,
      "##ries": 822,
      "double": 823,
      "pap": 824,
      "pole": 825,
      "passeng": 826,
      "oven": 827,
      "keyboard": 828,
      "decor": 829,
      "empt": 830,
      "rac": 831,
      "rid": 832,
      "##ful": 833,
      "##pe": 834,
      "empty": 835,
      "bicycle": 836,
      "corner": 837,
      "ser": 838,
      "##out": 839,
      "high": 840,
      "##vis": 841,
      "per": 842,
      "going": 843,
      "umbrellas": 844,
      "bar": 845,
      "cutting": 846,
      "cab": 847,
      "control": 848,
      "track": 849,
      "walk": 850,
      "pot": 851,
      "watching": 852,
      "who": 853,
      "cur": 854,
      "stove": 855,
      "hou": 856,
      "mar": 857,
      "kites": 858,
      "looks": 859,
      "trick": 860,
      "##vision": 861,
      "bre": 862,
      "jumping": 863,
      "television": 864,
      "smiling": 865,
      "chairs": 866,
      "ste": 867,
      "bottle": 868,
      "socc": 869,
      "dogs": 870,
      "soccer": 871,
      "##form": 872,
      "##cker": 873,
      "boats": 874,
      "pit": 875,
      "talking": 876,
      "ag": 877,
      "din": 878,
      "suitc": 879,
      "posing": 880,
      "airport": 881,
      "vide": 882,
      "traveling": 883,
      "video": 884,
      "tv": 885,
      "##ans": 886,
      "colorful": 887,
      "swinging": 888,
      "##ather": 889,
      "set": 890,
      "##lee": 891,
      "remot": 892,
      "##idge": 893,
      "topped": 894,
      "apple": 895,
      "att": 896,
      "birds": 897,
      "various": 898,
      "all": 899,
      "lady": 900,
      "animals": 901,
      "using": 902,
      "pitch": 903,
      "getting": 904,
      "body": 905,
      "contain": 906,
      "##umb": 907,
      "cabin": 908,
      "paper": 909,
      "##us": 910,
      "pain": 911,
      "##ces": 912,
      "night": 913,
      "mon": 914,
      "plates": 915,
      "home": 916,
      "##oes": 917,
      "again": 918,
      "against": 919,
      "fore": 920,
      "rail": 921,
      "coff": 922,
      "brick": 923,
      "##quet": 924,
      "throw": 925,
      "coffee": 926,
      "lea": 927,
      "jet": 928,
      "##arding": 929,
      "som": 930,
      "meat": 931,
      "cheese": 932,
      "banana": 933,
      "##ft": 934,
      "item": 935,
      "river": 936,
      "carrying": 937,
      "him": 938,
      "book": 939,
      "pol": 940,
      "lots": 941,
      "motorcycles": 942,
      "someone": 943,
      "can": 944,
      "##aur": 945,
      "tray": 946,
      "house": 947,
      "bedroom": 948,
      "pull": 949,
      "slee": 950,
      "##ething": 951,
      "##ian": 952,
      "something": 953,
      "lin": 954,
      "##ored": 955,
      "restaur": 956,
      "restaurant": 957,
      "##ool": 958,
      "##iss": 959,
      "##der": 960,
      "##ash": 961,
      "waiting": 962,
      "drink": 963,
      "or": 964,
      "##ced": 965,
      "lights": 966,
      "bears": 967,
      "row": 968,
      "dish": 969,
      "clou": 970,
      "shower": 971,
      "remote": 972,
      "metal": 973,
      "##oll": 974,
      "players": 975,
      "plant": 976,
      "decker": 977,
      "##alf": 978,
      "enc": 979,
      "mu": 980,
      "skateboarder": 981,
      "runway": 982,
      "face": 983,
      "tile": 984,
      "##los": 985,
      "outdo": 986,
      "toy": 987,
      "about": 988,
      "items": 989,
      "racquet": 990,
      "##ection": 991,
      "ramp": 992,
      "skier": 993,
      "brush": 994,
      "carro": 995,
      "res": 996,
      "enclos": 997,
      "dough": 998,
      "##ark": 999,
      "running": 1000,
      "mic": 1001,
      "surfer": 1002,
      "slic": 1003,
      "inters": 1004,
      "pile": 1005,
      "busy": 1006,
      "line": 1007,
      "##ases": 1008,
      "##ial": 1009,
      "store": 1010,
      "hands": 1011,
      "##ish": 1012,
      "pur": 1013,
      "rain": 1014,
      "hel": 1015,
      "screen": 1016,
      "mouth": 1017,
      "passenger": 1018,
      "like": 1019,
      "lying": 1020,
      "##ps": 1021,
      "##gs": 1022,
      "##gra": 1023,
      "intersection": 1024,
      "sil": 1025,
      "dressed": 1026,
      "##arm": 1027,
      "doughn": 1028,
      "male": 1029,
      "##oc": 1030,
      "toward": 1031,
      "##ty": 1032,
      "seat": 1033,
      "monit": 1034,
      "surfing": 1035,
      "half": 1036,
      "gre": 1037,
      "numb": 1038,
      "no": 1039,
      "suitcase": 1040,
      "am": 1041,
      "pan": 1042,
      "photogra": 1043,
      "rock": 1044,
      "boo": 1045,
      "she": 1046,
      "tub": 1047,
      "batter": 1048,
      "##ive": 1049,
      "##ler": 1050,
      "slice": 1051,
      "##raw": 1052,
      "shown": 1053,
      "ha": 1054,
      "made": 1055,
      "sciss": 1056,
      "##ones": 1057,
      "preparing": 1058,
      "dark": 1059,
      "##we": 1060,
      "##ife": 1061,
      "rides": 1062,
      "##uce": 1063,
      "app": 1064,
      "##phone": 1065,
      "colored": 1066,
      "pulling": 1067,
      "##ges": 1068,
      "look": 1069,
      "veh": 1070,
      "##te": 1071,
      "ty": 1072,
      "gray": 1073,
      "scissors": 1074,
      "##ire": 1075,
      "vehic": 1076,
      "##ne": 1077,
      "silver": 1078,
      "way": 1079,
      "mat": 1080,
      "sleeping": 1081,
      "surround": 1082,
      "bridge": 1083,
      "jacket": 1084,
      "##cl": 1085,
      "number": 1086,
      "cloth": 1087,
      "photograph": 1088,
      "##ading": 1089,
      "donuts": 1090,
      "tooth": 1091,
      "zoo": 1092,
      "##oarding": 1093,
      "##ert": 1094,
      "microw": 1095,
      "enclosure": 1096,
      "##ny": 1097,
      "kids": 1098,
      "post": 1099,
      "##iz": 1100,
      "##ating": 1101,
      "bet": 1102,
      "hair": 1103,
      "knife": 1104,
      "##pp": 1105,
      "surrounded": 1106,
      "##ars": 1107,
      "##ond": 1108,
      "microwave": 1109,
      "##ween": 1110,
      "between": 1111,
      "forest": 1112,
      "mult": 1113,
      "showing": 1114,
      "##aning": 1115,
      "bright": 1116,
      "adult": 1117,
      "carrots": 1118,
      "##ched": 1119,
      "##art": 1120,
      "meal": 1121,
      "bread": 1122,
      "##ale": 1123,
      "##to": 1124,
      "pill": 1125,
      "decorated": 1126,
      "lined": 1127,
      "few": 1128,
      "lake": 1129,
      "sal": 1130,
      "##iform": 1131,
      "uniform": 1132,
      "mouse": 1133,
      "ce": 1134,
      "boys": 1135,
      "cabinets": 1136,
      "buses": 1137,
      "##are": 1138,
      "##ooking": 1139,
      "walks": 1140,
      "older": 1141,
      "arm": 1142,
      "##ved": 1143,
      "##anes": 1144,
      "skiers": 1145,
      "##eel": 1146,
      "scen": 1147,
      "blan": 1148,
      "furn": 1149,
      "cand": 1150,
      "##iture": 1151,
      "purple": 1152,
      "furniture": 1153,
      "hu": 1154,
      "stat": 1155,
      "ex": 1156,
      "bran": 1157,
      "##ron": 1158,
      "grey": 1159,
      "dock": 1160,
      "oranges": 1161,
      "branch": 1162,
      "girls": 1163,
      "##pes": 1164,
      "stick": 1165,
      "spe": 1166,
      "attach": 1167,
      "outdoor": 1168,
      "stri": 1169,
      "tri": 1170,
      "shop": 1171,
      "##lic": 1172,
      "##ings": 1173,
      "gather": 1174,
      "pillow": 1175,
      "pick": 1176,
      "have": 1177,
      "choc": 1178,
      "cloudy": 1179,
      "##olate": 1180,
      "comm": 1181,
      "waves": 1182,
      "##atoes": 1183,
      "eng": 1184,
      "displayed": 1185,
      "throwing": 1186,
      "coming": 1187,
      "attached": 1188,
      "##di": 1189,
      "incl": 1190,
      "fre": 1191,
      "##ime": 1192,
      "fork": 1193,
      "chocolate": 1194,
      "##day": 1195,
      "fem": 1196,
      "monitor": 1197,
      "##ily": 1198,
      "clean": 1199,
      "making": 1200,
      "onto": 1201,
      "leaning": 1202,
      "ob": 1203,
      "windows": 1204,
      "feed": 1205,
      "helm": 1206,
      "crossing": 1207,
      "inclu": 1208,
      "##inking": 1209,
      "flower": 1210,
      "shelf": 1211,
      "multi": 1212,
      "##oon": 1213,
      "dining": 1214,
      "stone": 1215,
      "perform": 1216,
      "ho": 1217,
      "elect": 1218,
      "gi": 1219,
      "salad": 1220,
      "scene": 1221,
      "cook": 1222,
      "##dge": 1223,
      "cats": 1224,
      "birt": 1225,
      "##ance": 1226,
      "birth": 1227,
      "lamp": 1228,
      "painted": 1229,
      "rocks": 1230,
      "country": 1231,
      "drinking": 1232,
      "##sp": 1233,
      "hitting": 1234,
      "birthday": 1235,
      "market": 1236,
      "work": 1237,
      "pat": 1238,
      "basket": 1239,
      "meter": 1240,
      "seen": 1241,
      "fla": 1242,
      "lush": 1243,
      "bea": 1244,
      "walls": 1245,
      "apples": 1246,
      "female": 1247,
      "##sed": 1248,
      "resting": 1249,
      "pub": 1250,
      "towards": 1251,
      "ass": 1252,
      "fruits": 1253,
      "##by": 1254,
      "office": 1255,
      "##int": 1256,
      "clear": 1257,
      "##ken": 1258,
      "public": 1259,
      "beaut": 1260,
      "tables": 1261,
      "trail": 1262,
      "sunny": 1263,
      "lay": 1264,
      "##astic": 1265,
      "fries": 1266,
      "##ents": 1267,
      "setting": 1268,
      "sha": 1269,
      "pen": 1270,
      "##ary": 1271,
      "##utter": 1272,
      "beautif": 1273,
      "blanket": 1274,
      "plastic": 1275,
      "moving": 1276,
      "leaves": 1277,
      "shot": 1278,
      "squ": 1279,
      "##brush": 1280,
      "police": 1281,
      "cre": 1282,
      "##jo": 1283,
      "pictures": 1284,
      "towel": 1285,
      "stopped": 1286,
      "bush": 1287,
      "ur": 1288,
      "surfboards": 1289,
      "prepar": 1290,
      "books": 1291,
      "part": 1292,
      "##aching": 1293,
      "edge": 1294,
      "been": 1295,
      "snowboarder": 1296,
      "tom": 1297,
      "##old": 1298,
      "bikes": 1299,
      "mountains": 1300,
      "##ching": 1301,
      "teeth": 1302,
      "helmet": 1303,
      "##less": 1304,
      "assort": 1305,
      "enjo": 1306,
      "beautiful": 1307,
      "stack": 1308,
      "fresh": 1309,
      "path": 1310,
      "platform": 1311,
      "working": 1312,
      "smile": 1313,
      "donut": 1314,
      "toothbrush": 1315,
      "sub": 1316,
      "short": 1317,
      "##ric": 1318,
      "ride": 1319,
      "##lection": 1320,
      "statue": 1321,
      "underne": 1322,
      "##oot": 1323,
      "underneath": 1324,
      "bel": 1325,
      "trying": 1326,
      "##dd": 1327,
      "slices": 1328,
      "not": 1329,
      "topping": 1330,
      "##ety": 1331,
      "yard": 1332,
      "fri": 1333,
      "dist": 1334,
      "cart": 1335,
      "time": 1336,
      "pa": 1337,
      "ge": 1338,
      "af": 1339,
      "sing": 1340,
      "draw": 1341,
      "controller": 1342,
      "roll": 1343,
      "turn": 1344,
      "wild": 1345,
      "##ally": 1346,
      "fam": 1347,
      "##mp": 1348,
      "carri": 1349,
      "van": 1350,
      "fac": 1351,
      "lap": 1352,
      "pieces": 1353,
      "##ug": 1354,
      "##pped": 1355,
      "wire": 1356,
      "having": 1357,
      "nice": 1358,
      "wet": 1359,
      "skateboarding": 1360,
      "base": 1361,
      "ent": 1362,
      "new": 1363,
      "placed": 1364,
      "computers": 1365,
      "shows": 1366,
      "perched": 1367,
      "##ling": 1368,
      "eaten": 1369,
      "##inal": 1370,
      "##ect": 1371,
      "cellphone": 1372,
      "case": 1373,
      "shore": 1374,
      "mil": 1375,
      "pepp": 1376,
      "catcher": 1377,
      "dire": 1378,
      "passing": 1379,
      "gar": 1380,
      "sty": 1381,
      "hotel": 1382,
      "moder": 1383,
      "vehicle": 1384,
      "put": 1385,
      "appl": 1386,
      "cooking": 1387,
      "surface": 1388,
      "sandy": 1389,
      "dinner": 1390,
      "vases": 1391,
      "##ist": 1392,
      "they": 1393,
      "##ca": 1394,
      "ey": 1395,
      "family": 1396,
      "modern": 1397,
      "neck": 1398,
      "dry": 1399,
      "trains": 1400,
      "laptops": 1401,
      "doughnut": 1402,
      "applian": 1403,
      "land": 1404,
      "boards": 1405,
      "beer": 1406,
      "conc": 1407,
      "##ition": 1408,
      "tiled": 1409,
      "pizzas": 1410,
      "town": 1411,
      "nin": 1412,
      "##ix": 1413,
      "chick": 1414,
      "##hers": 1415,
      "brushing": 1416,
      "types": 1417,
      "just": 1418,
      "end": 1419,
      "pitcher": 1420,
      "sauce": 1421,
      "reading": 1422,
      "##ines": 1423,
      "engine": 1424,
      "##ats": 1425,
      "##py": 1426,
      "benches": 1427,
      "##ely": 1428,
      "trun": 1429,
      "toppings": 1430,
      "single": 1431,
      "ninten": 1432,
      "##bor": 1433,
      "multiple": 1434,
      "nintendo": 1435,
      "others": 1436,
      "##ides": 1437,
      "##iti": 1438,
      "##top": 1439,
      "watches": 1440,
      "##ound": 1441,
      "doughnuts": 1442,
      "ped": 1443,
      "chicken": 1444,
      "pret": 1445,
      "du": 1446,
      "sail": 1447,
      "##vers": 1448,
      "graff": 1449,
      "kind": 1450,
      "##ley": 1451,
      "variety": 1452,
      "plants": 1453,
      "mounted": 1454,
      "take": 1455,
      "cent": 1456,
      "jump": 1457,
      "##ject": 1458,
      "tan": 1459,
      "##ized": 1460,
      "enjoying": 1461,
      "egg": 1462,
      "##ature": 1463,
      "place": 1464,
      "curb": 1465,
      "##tub": 1466,
      "wheel": 1467,
      "equ": 1468,
      "##wn": 1469,
      "guys": 1470,
      "graffiti": 1471,
      "##tain": 1472,
      "left": 1473,
      "trucks": 1474,
      "##armac": 1475,
      "bowls": 1476,
      "bathtub": 1477,
      "tarmac": 1478,
      "pretty": 1479,
      "see": 1480,
      "flat": 1481,
      "##ming": 1482,
      "gear": 1483,
      "rack": 1484,
      "##bo": 1485,
      "sof": 1486,
      "distance": 1487,
      "hotdo": 1488,
      "passengers": 1489,
      "phones": 1490,
      "pack": 1491,
      "after": 1492,
      "pad": 1493,
      "woods": 1494,
      "##cial": 1495,
      "##ger": 1496,
      "performing": 1497,
      "shoes": 1498,
      "appliances": 1499,
      "gathered": 1500,
      "cute": 1501,
      "##ush": 1502,
      "dess": 1503,
      "well": 1504,
      "rice": 1505,
      "tricks": 1506,
      "##cing": 1507,
      "fenced": 1508,
      "pedest": 1509,
      "swim": 1510,
      "fly": 1511,
      "containing": 1512,
      "arran": 1513,
      "bal": 1514,
      "glo": 1515,
      "##road": 1516,
      "##ins": 1517,
      "candles": 1518,
      "pas": 1519,
      "sch": 1520,
      "##ages": 1521,
      "curtain": 1522,
      "##ead": 1523,
      "##place": 1524,
      "five": 1525,
      "tran": 1526,
      "stair": 1527,
      "##stru": 1528,
      "bottles": 1529,
      "match": 1530,
      "carriage": 1531,
      "fish": 1532,
      "break": 1533,
      "flies": 1534,
      "team": 1535,
      "pasture": 1536,
      "railroad": 1537,
      "feeding": 1538,
      "bags": 1539,
      "fr": 1540,
      "dirty": 1541,
      "equip": 1542,
      "##rete": 1543,
      "center": 1544,
      "concrete": 1545,
      "spoon": 1546,
      "##ronic": 1547,
      "poles": 1548,
      "below": 1549,
      "cattle": 1550,
      "poin": 1551,
      "right": 1552,
      "school": 1553,
      "foot": 1554,
      "onion": 1555,
      "electronic": 1556,
      "##its": 1557,
      "##pack": 1558,
      "drinks": 1559,
      "including": 1560,
      "##elves": 1561,
      "##head": 1562,
      "##end": 1563,
      "clutter": 1564,
      "steel": 1565,
      "pillows": 1566,
      "##po": 1567,
      "fireplace": 1568,
      "##iding": 1569,
      "takes": 1570,
      "shaped": 1571,
      "##ini": 1572,
      "sofa": 1573,
      "among": 1574,
      "pul": 1575,
      "ble": 1576,
      "##ession": 1577,
      "##me": 1578,
      "crowded": 1579,
      "striped": 1580,
      "backpack": 1581,
      "vint": 1582,
      "vintage": 1583,
      "##que": 1584,
      "##rash": 1585,
      "##ower": 1586,
      "polar": 1587,
      "art": 1588,
      "wr": 1589,
      "##light": 1590,
      "pulled": 1591,
      "alone": 1592,
      "##ips": 1593,
      "##ads": 1594,
      "wra": 1595,
      "nearby": 1596,
      "prof": 1597,
      "beds": 1598,
      "sandwiches": 1599,
      "boxes": 1600,
      "loc": 1601,
      "painting": 1602,
      "fridge": 1603,
      "chur": 1604,
      "huge": 1605,
      "##ied": 1606,
      "catching": 1607,
      "##ber": 1608,
      "skateboards": 1609,
      "cream": 1610,
      "direction": 1611,
      "qu": 1612,
      "object": 1613,
      "trunk": 1614,
      "church": 1615,
      "gold": 1616,
      "##ball": 1617,
      "mess": 1618,
      "planes": 1619,
      "feet": 1620,
      "sliced": 1621,
      "ju": 1622,
      "sou": 1623,
      "##ames": 1624,
      "sinks": 1625,
      "container": 1626,
      "cabinet": 1627,
      "giant": 1628,
      "fan": 1629,
      "##ged": 1630,
      "##rist": 1631,
      "style": 1632,
      "suitcases": 1633,
      "del": 1634,
      "round": 1635,
      "equipment": 1636,
      "bicycles": 1637,
      "vehicles": 1638,
      "both": 1639,
      "##ural": 1640,
      "served": 1641,
      "but": 1642,
      "tour": 1643,
      "##sc": 1644,
      "reaching": 1645,
      "##amb": 1646,
      "where": 1647,
      "plays": 1648,
      "putting": 1649,
      "##ical": 1650,
      "bushes": 1651,
      "profession": 1652,
      "##ise": 1653,
      "##anding": 1654,
      "asian": 1655,
      "floating": 1656,
      "clothes": 1657,
      "fo": 1658,
      "stall": 1659,
      "wed": 1660,
      "##ll": 1661,
      "##alm": 1662,
      "tomatoes": 1663,
      "professional": 1664,
      "smiles": 1665,
      "##ycl": 1666,
      "legs": 1667,
      "poses": 1668,
      "atop": 1669,
      "##de": 1670,
      "away": 1671,
      "surfers": 1672,
      "pedestri": 1673,
      "sticking": 1674,
      "serve": 1675,
      "dishes": 1676,
      "taken": 1677,
      "fa": 1678,
      "space": 1679,
      "prepares": 1680,
      "lays": 1681,
      "hay": 1682,
      "serving": 1683,
      "airplanes": 1684,
      "##land": 1685,
      "potatoes": 1686,
      "commer": 1687,
      "##ti": 1688,
      "##lin": 1689,
      "##ato": 1690,
      "##unch": 1691,
      "stain": 1692,
      "bak": 1693,
      "##ons": 1694,
      "##elling": 1695,
      "staring": 1696,
      "commercial": 1697,
      "##lers": 1698,
      "##ious": 1699,
      "##iness": 1700,
      "blo": 1701,
      "offic": 1702,
      "##set": 1703,
      "form": 1704,
      "foods": 1705,
      "win": 1706,
      "business": 1707,
      "reflection": 1708,
      "smo": 1709,
      "dev": 1710,
      "pose": 1711,
      "##fast": 1712,
      "##mas": 1713,
      "##lasses": 1714,
      "fash": 1715,
      "##owing": 1716,
      "breakfast": 1717,
      "led": 1718,
      "rust": 1719,
      "##rench": 1720,
      "cement": 1721,
      "fashion": 1722,
      "which": 1723,
      "mother": 1724,
      "let": 1725,
      "christ": 1726,
      "##vent": 1727,
      "##cy": 1728,
      "design": 1729,
      "##lder": 1730,
      "pool": 1731,
      "subway": 1732,
      "shorts": 1733,
      "farm": 1734,
      "christmas": 1735,
      "stacked": 1736,
      "##iny": 1737,
      "ear": 1738,
      "appe": 1739,
      "lone": 1740,
      "har": 1741,
      "roo": 1742,
      "square": 1743,
      "rug": 1744,
      "ump": 1745,
      "##ward": 1746,
      "cooked": 1747,
      "##aded": 1748,
      "trash": 1749,
      "straw": 1750,
      "french": 1751,
      "same": 1752,
      "##ract": 1753,
      "##ular": 1754,
      "tur": 1755,
      "##boarding": 1756,
      "##cking": 1757,
      "urinal": 1758,
      "##ugh": 1759,
      "dessert": 1760,
      "cluttered": 1761,
      "soup": 1762,
      "gard": 1763,
      "##man": 1764,
      "##ils": 1765,
      "kitten": 1766,
      "umpire": 1767,
      "swe": 1768,
      "flag": 1769,
      "garden": 1770,
      "##fe": 1771,
      "highway": 1772,
      "##urry": 1773,
      "seated": 1774,
      "##ists": 1775,
      "outdoors": 1776,
      "swings": 1777,
      "games": 1778,
      "docked": 1779,
      "outf": 1780,
      "inter": 1781,
      "swimming": 1782,
      "fun": 1783,
      "hard": 1784,
      "boarding": 1785,
      "sung": 1786,
      "pepper": 1787,
      "get": 1788,
      "##ens": 1789,
      "sunglasses": 1790,
      "ret": 1791,
      "##ends": 1792,
      "mach": 1793,
      "clocks": 1794,
      "wedding": 1795,
      "couches": 1796,
      "##artment": 1797,
      "##ults": 1798,
      "overl": 1799,
      "blender": 1800,
      "bur": 1801,
      "##bb": 1802,
      "hotdog": 1803,
      "##struction": 1804,
      "low": 1805,
      "##ban": 1806,
      "##ige": 1807,
      "##ock": 1808,
      "##ape": 1809,
      "assortment": 1810,
      "##ual": 1811,
      "##itary": 1812,
      "adults": 1813,
      "##tom": 1814,
      "##kets": 1815,
      "##ants": 1816,
      "lad": 1817,
      "ter": 1818,
      "##let": 1819,
      "##liner": 1820,
      "ice": 1821,
      "say": 1822,
      "prop": 1823,
      "drawn": 1824,
      "cra": 1825,
      "##ned": 1826,
      "kneel": 1827,
      "controllers": 1828,
      "##hou": 1829,
      "cli": 1830,
      "ind": 1831,
      "drives": 1832,
      "prod": 1833,
      "hillside": 1834,
      "kick": 1835,
      "restroom": 1836,
      "fra": 1837,
      "cla": 1838,
      "doors": 1839,
      "##oni": 1840,
      "signal": 1841,
      "desktop": 1842,
      "star": 1843,
      "shelves": 1844,
      "flock": 1845,
      "ceiling": 1846,
      "rocky": 1847,
      "military": 1848,
      "onions": 1849,
      "##io": 1850,
      "ledge": 1851,
      "jumps": 1852,
      "eyes": 1853,
      "lawn": 1854,
      "wooded": 1855,
      "does": 1856,
      "stainless": 1857,
      "fall": 1858,
      "skies": 1859,
      "appro": 1860,
      "facing": 1861,
      "acc": 1862,
      "ext": 1863,
      "stairs": 1864,
      "feature": 1865,
      "sho": 1866,
      "lunch": 1867,
      "race": 1868,
      "free": 1869,
      "##ident": 1870,
      "was": 1871,
      "##cture": 1872,
      "gate": 1873,
      "##fore": 1874,
      "sea": 1875,
      "things": 1876,
      "todd": 1877,
      "eats": 1878,
      "##vy": 1879,
      "tou": 1880,
      "desert": 1881,
      "pointing": 1882,
      "##nic": 1883,
      "clouds": 1884,
      "##made": 1885,
      "assorted": 1886,
      "##br": 1887,
      "before": 1888,
      "chop": 1889,
      "compet": 1890,
      "card": 1891,
      "cups": 1892,
      "eggs": 1893,
      "nap": 1894,
      "closeup": 1895,
      "cru": 1896,
      "mod": 1897,
      "event": 1898,
      "##vert": 1899,
      "##go": 1900,
      "##ches": 1901,
      "doll": 1902,
      "##irc": 1903,
      "make": 1904,
      "##read": 1905,
      "vegg": 1906,
      "hold": 1907,
      "disc": 1908,
      "glove": 1909,
      "##aking": 1910,
      "advert": 1911,
      "##ater": 1912,
      "steps": 1913,
      "cost": 1914,
      "construction": 1915,
      "roof": 1916,
      "##adow": 1917,
      "says": 1918,
      "coat": 1919,
      "fashioned": 1920,
      "circ": 1921,
      "##arrow": 1922,
      "mini": 1923,
      "stru": 1924,
      "##ump": 1925,
      "##icks": 1926,
      "##ative": 1927,
      "attem": 1928,
      "arms": 1929,
      "##ations": 1930,
      "rackets": 1931,
      "##ef": 1932,
      "party": 1933,
      "type": 1934,
      "arranged": 1935,
      "toddler": 1936,
      "fig": 1937,
      "##uit": 1938,
      "costum": 1939,
      "##cted": 1940,
      "spr": 1941,
      "picnic": 1942,
      "snowboarding": 1943,
      "landing": 1944,
      "pond": 1945,
      "floors": 1946,
      "broken": 1947,
      "electric": 1948,
      "##des": 1949,
      "mix": 1950,
      "closed": 1951,
      "##phones": 1952,
      "monitors": 1953,
      "##vid": 1954,
      "steam": 1955,
      "port": 1956,
      "neat": 1957,
      "bottom": 1958,
      "overlooking": 1959,
      "##xing": 1960,
      "##ates": 1961,
      "friends": 1962,
      "lett": 1963,
      "pots": 1964,
      "##cakes": 1965,
      "trans": 1966,
      "tied": 1967,
      "##ering": 1968,
      "cage": 1969,
      "dep": 1970,
      "chef": 1971,
      "graze": 1972,
      "kneeling": 1973,
      "##aches": 1974,
      "boarder": 1975,
      "wide": 1976,
      "narrow": 1977,
      "hap": 1978,
      "must": 1979,
      "wash": 1980,
      "##az": 1981,
      "deck": 1982,
      "fight": 1983,
      "##self": 1984,
      "anti": 1985,
      "##key": 1986,
      "mag": 1987,
      "pasta": 1988,
      "messy": 1989,
      "##ony": 1990,
      "##ium": 1991,
      "overhead": 1992,
      "rider": 1993,
      "orn": 1994,
      "##pet": 1995,
      "leash": 1996,
      "gl": 1997,
      "indo": 1998,
      "colors": 1999,
      "reads": 2000,
      "skating": 2001,
      "##ctor": 2002,
      "himself": 2003,
      "machine": 2004,
      "stra": 2005,
      "sale": 2006,
      "net": 2007,
      "##ially": 2008,
      "bever": 2009,
      "trailer": 2010,
      "fancy": 2011,
      "sides": 2012,
      "##uc": 2013,
      "cakes": 2014,
      "##ns": 2015,
      "commut": 2016,
      "##per": 2017,
      "ship": 2018,
      "suits": 2019,
      "appears": 2020,
      "ket": 2021,
      "plain": 2022,
      "pr": 2023,
      "##ia": 2024,
      "##rop": 2025,
      "chain": 2026,
      "pract": 2027,
      "walkway": 2028,
      "##na": 2029,
      "##red": 2030,
      "towels": 2031,
      "grill": 2032,
      "leather": 2033,
      "ties": 2034,
      "smart": 2035,
      "carpet": 2036,
      "veggies": 2037,
      "sunset": 2038,
      "model": 2039,
      "transit": 2040,
      "bite": 2041,
      "cap": 2042,
      "##pture": 2043,
      "bik": 2044,
      "speed": 2045,
      "structure": 2046,
      "action": 2047,
      "rela": 2048,
      "cons": 2049,
      "foreground": 2050,
      "good": 2051,
      "##ican": 2052,
      "features": 2053,
      "teen": 2054,
      "partially": 2055,
      "pants": 2056,
      "##ence": 2057,
      "shade": 2058,
      "sport": 2059,
      "drive": 2060,
      "still": 2061,
      "pastries": 2062,
      "stor": 2063,
      "antique": 2064,
      "beard": 2065,
      "loaded": 2066,
      "pos": 2067,
      "urban": 2068,
      "pepperoni": 2069,
      "stret": 2070,
      "mush": 2071,
      "carrot": 2072,
      "##ired": 2073,
      "mis": 2074,
      "what": 2075,
      "toilets": 2076,
      "photos": 2077,
      "##ators": 2078,
      "pier": 2079,
      "doorway": 2080,
      "paw": 2081,
      "mushroom": 2082,
      "palm": 2083,
      "##ount": 2084,
      "shou": 2085,
      "scoo": 2086,
      "held": 2087,
      "push": 2088,
      "toast": 2089,
      "##ib": 2090,
      "commuter": 2091,
      "clothing": 2092,
      "pee": 2093,
      "wrapped": 2094,
      "scooter": 2095,
      "refle": 2096,
      "baked": 2097,
      "sill": 2098,
      "toys": 2099,
      "device": 2100,
      "hole": 2101,
      "position": 2102,
      "##aster": 2103,
      "##eath": 2104,
      "beneath": 2105,
      "winter": 2106,
      "vis": 2107,
      "lies": 2108,
      "tomato": 2109,
      "pastry": 2110,
      "racing": 2111,
      "smoke": 2112,
      "propell": 2113,
      "lou": 2114,
      "saus": 2115,
      "blurry": 2116,
      "kinds": 2117,
      "power": 2118,
      "war": 2119,
      "gets": 2120,
      "##ives": 2121,
      "bull": 2122,
      "outfit": 2123,
      "chips": 2124,
      "##uff": 2125,
      "makes": 2126,
      "##house": 2127,
      "railing": 2128,
      "dra": 2129,
      "sy": 2130,
      "flip": 2131,
      "giving": 2132,
      "harbor": 2133,
      "sprink": 2134,
      "decorative": 2135,
      "contains": 2136,
      "pedestrians": 2137,
      "class": 2138,
      "supp": 2139,
      "fighter": 2140,
      "apartment": 2141,
      "houses": 2142,
      "used": 2143,
      "##ier": 2144,
      "##nish": 2145,
      "blond": 2146,
      "mud": 2147,
      "petting": 2148,
      "island": 2149,
      "lettuce": 2150,
      "wets": 2151,
      "fur": 2152,
      "##mon": 2153,
      "lid": 2154,
      "self": 2155,
      "##very": 2156,
      "grow": 2157,
      "##ring": 2158,
      "##ighting": 2159,
      "seag": 2160,
      "peppers": 2161,
      "##da": 2162,
      "garage": 2163,
      "includes": 2164,
      "use": 2165,
      "seagull": 2166,
      "sort": 2167,
      "sized": 2168,
      "##bs": 2169,
      "##cket": 2170,
      "rests": 2171,
      "##tens": 2172,
      "##ork": 2173,
      "sheet": 2174,
      "spot": 2175,
      "##sting": 2176,
      "##be": 2177,
      "streets": 2178,
      "comf": 2179,
      "siz": 2180,
      "##cting": 2181,
      "med": 2182,
      "##nding": 2183,
      "containers": 2184,
      "bou": 2185,
      "leading": 2186,
      "##yard": 2187,
      "##tered": 2188,
      "opened": 2189,
      "pres": 2190,
      "prepared": 2191,
      "mound": 2192,
      "bunches": 2193,
      "foll": 2194,
      "##co": 2195,
      "##els": 2196,
      "##acon": 2197,
      "vanity": 2198,
      "produce": 2199,
      "je": 2200,
      "mit": 2201,
      "nood": 2202,
      "beans": 2203,
      "six": 2204,
      "leaf": 2205,
      "vest": 2206,
      "..": 2207,
      "stunt": 2208,
      "indi": 2209,
      "##ising": 2210,
      "ripe": 2211,
      "lift": 2212,
      "scul": 2213,
      "bacon": 2214,
      "hall": 2215,
      "##lage": 2216,
      "upside": 2217,
      "##idential": 2218,
      "here": 2219,
      "##par": 2220,
      "hats": 2221,
      "papers": 2222,
      "utens": 2223,
      "waits": 2224,
      "barn": 2225,
      "candle": 2226,
      "milk": 2227,
      "writing": 2228,
      "pans": 2229,
      "rural": 2230,
      "chin": 2231,
      "these": 2232,
      "brightly": 2233,
      "##gon": 2234,
      "flight": 2235,
      "shopping": 2236,
      "turned": 2237,
      "strawber": 2238,
      "pave": 2239,
      "residential": 2240,
      "hood": 2241,
      "tiny": 2242,
      "amer": 2243,
      "mug": 2244,
      "nose": 2245,
      "sheets": 2246,
      "happy": 2247,
      "pavement": 2248,
      "##ees": 2249,
      "heads": 2250,
      "##act": 2251,
      "alongside": 2252,
      "patio": 2253,
      "urinals": 2254,
      "cond": 2255,
      "juice": 2256,
      "groom": 2257,
      "##itten": 2258,
      "##alle": 2259,
      "personal": 2260,
      "tea": 2261,
      "soda": 2262,
      "lamb": 2263,
      "tank": 2264,
      "climb": 2265,
      "##eds": 2266,
      "meters": 2267,
      "snowboards": 2268,
      "paddle": 2269,
      "##yclist": 2270,
      "frosting": 2271,
      "sculpture": 2272,
      "gla": 2273,
      "##bage": 2274,
      "stream": 2275,
      "remotes": 2276,
      "cal": 2277,
      "##pping": 2278,
      "##ield": 2279,
      "##ital": 2280,
      "rainy": 2281,
      "##erial": 2282,
      "branches": 2283,
      "touching": 2284,
      "##ette": 2285,
      "smaller": 2286,
      "purse": 2287,
      "ducks": 2288,
      "directions": 2289,
      "##ray": 2290,
      "pipe": 2291,
      "rear": 2292,
      "block": 2293,
      "ham": 2294,
      "parade": 2295,
      "laid": 2296,
      "sem": 2297,
      "sailing": 2298,
      "riders": 2299,
      "cub": 2300,
      "ketch": 2301,
      "##aper": 2302,
      "ketchup": 2303,
      "itself": 2304,
      "kicking": 2305,
      "##opes": 2306,
      "##gging": 2307,
      "log": 2308,
      "term": 2309,
      "butter": 2310,
      "##ining": 2311,
      "persons": 2312,
      "wetsuit": 2313,
      "displaying": 2314,
      "##iv": 2315,
      "loading": 2316,
      "ladies": 2317,
      "costume": 2318,
      "deep": 2319,
      "built": 2320,
      "dresser": 2321,
      "##kin": 2322,
      "oppo": 2323,
      "lines": 2324,
      "flags": 2325,
      "##bile": 2326,
      "tent": 2327,
      "pup": 2328,
      "sol": 2329,
      "##gre": 2330,
      "only": 2331,
      "officer": 2332,
      "##zer": 2333,
      "cour": 2334,
      "enclosed": 2335,
      "mustard": 2336,
      "terminal": 2337,
      "##med": 2338,
      "noodles": 2339,
      "american": 2340,
      "elder": 2341,
      "beige": 2342,
      "mushrooms": 2343,
      "eye": 2344,
      "sausage": 2345,
      "glaz": 2346,
      "ow": 2347,
      "decorations": 2348,
      "##scape": 2349,
      "waters": 2350,
      "platter": 2351,
      "trays": 2352,
      "practic": 2353,
      "sliding": 2354,
      "ador": 2355,
      "utensils": 2356,
      "cas": 2357,
      "##lies": 2358,
      "uniforms": 2359,
      "char": 2360,
      "approaching": 2361,
      "fried": 2362,
      "individ": 2363,
      "mas": 2364,
      "##cra": 2365,
      "shoe": 2366,
      "##ange": 2367,
      "pickup": 2368,
      "elderly": 2369,
      "##ster": 2370,
      "goes": 2371,
      "##ness": 2372,
      "throws": 2373,
      "sweater": 2374,
      "##pting": 2375,
      "##wing": 2376,
      "course": 2377,
      "uses": 2378,
      "leans": 2379,
      "balan": 2380,
      "ornate": 2381,
      "semi": 2382,
      "collection": 2383,
      "gas": 2384,
      "deli": 2385,
      "wait": 2386,
      "##ible": 2387,
      "##ird": 2388,
      "greens": 2389,
      "spect": 2390,
      "laugh": 2391,
      "##yclists": 2392,
      "individual": 2393,
      "sim": 2394,
      "bride": 2395,
      "most": 2396,
      "hangs": 2397,
      "paint": 2398,
      "posted": 2399,
      "propeller": 2400,
      "written": 2401,
      "mitt": 2402,
      "sailbo": 2403,
      "##ior": 2404,
      "liqu": 2405,
      "pulls": 2406,
      "beverage": 2407,
      "##iff": 2408,
      "crosswalk": 2409,
      "attempting": 2410,
      "indoor": 2411,
      "growing": 2412,
      "##xture": 2413,
      "life": 2414,
      "goats": 2415,
      "rolling": 2416,
      "transp": 2417,
      "##so": 2418,
      "stad": 2419,
      "##gged": 2420,
      "fake": 2421,
      "pour": 2422,
      "##ral": 2423,
      "##allow": 2424,
      "runs": 2425,
      "##mo": 2426,
      "leg": 2427,
      "guit": 2428,
      "##craft": 2429,
      "neatly": 2430,
      "stadium": 2431,
      "ol": 2432,
      "tong": 2433,
      "##omot": 2434,
      "passes": 2435,
      "jets": 2436,
      "baskets": 2437,
      "if": 2438,
      "##nel": 2439,
      "rows": 2440,
      "flor": 2441,
      "locomot": 2442,
      "gent": 2443,
      "##erry": 2444,
      "##rounding": 2445,
      "surrounding": 2446,
      "comple": 2447,
      "##ully": 2448,
      "potted": 2449,
      "micro": 2450,
      "supplies": 2451,
      "##gan": 2452,
      "##site": 2453,
      "relaxing": 2454,
      "##ware": 2455,
      "##erts": 2456,
      "tops": 2457,
      "bending": 2458,
      "curled": 2459,
      "lamps": 2460,
      "curtains": 2461,
      "fast": 2462,
      "us": 2463,
      "roses": 2464,
      "##case": 2465,
      "pet": 2466,
      "rope": 2467,
      "roadway": 2468,
      "tax": 2469,
      "shirtless": 2470,
      "##als": 2471,
      "##ggy": 2472,
      "patter": 2473,
      "missing": 2474,
      "how": 2475,
      "tool": 2476,
      "##ues": 2477,
      "##ms": 2478,
      "airliner": 2479,
      "handle": 2480,
      "siting": 2481,
      "snack": 2482,
      "paved": 2483,
      "wires": 2484,
      "locomotive": 2485,
      "por": 2486,
      "##ton": 2487,
      "aircraft": 2488,
      "##rance": 2489,
      "packed": 2490,
      "bell": 2491,
      "sticks": 2492,
      "balls": 2493,
      "muse": 2494,
      "glazed": 2495,
      "spectators": 2496,
      "motion": 2497,
      "##usk": 2498,
      "wheels": 2499,
      "frame": 2500,
      "sports": 2501,
      "crou": 2502,
      "##hill": 2503,
      "shadow": 2504,
      "##ended": 2505,
      "museum": 2506,
      "checker": 2507,
      "duck": 2508,
      "falling": 2509,
      "##uffy": 2510,
      "tail": 2511,
      "gentle": 2512,
      "dim": 2513,
      "telephone": 2514,
      "toothbrushes": 2515,
      "electronics": 2516,
      "ang": 2517,
      "hea": 2518,
      "booksh": 2519,
      "##bi": 2520,
      "##ised": 2521,
      "cele": 2522,
      "performs": 2523,
      "selfie": 2524,
      "hum": 2525,
      "separ": 2526,
      "practicing": 2527,
      "celebr": 2528,
      "without": 2529,
      "stool": 2530,
      "##cked": 2531,
      "wagon": 2532,
      "haired": 2533,
      "##cake": 2534,
      "arrange": 2535,
      "guitar": 2536,
      "##inish": 2537,
      "coll": 2538,
      "jeans": 2539,
      "##ser": 2540,
      "toss": 2541,
      "##ices": 2542,
      "blow": 2543,
      "piled": 2544,
      "floral": 2545,
      "shallow": 2546,
      "section": 2547,
      "aw": 2548,
      "fir": 2549,
      "##ption": 2550,
      "dead": 2551,
      "adj": 2552,
      "trol": 2553,
      "tiles": 2554,
      "num": 2555,
      "mirrors": 2556,
      "talks": 2557,
      "advertise": 2558,
      "arrangement": 2559,
      "cycle": 2560,
      "ingre": 2561,
      "formation": 2562,
      "ingredi": 2563,
      "pine": 2564,
      "soft": 2565,
      "delic": 2566,
      "also": 2567,
      "numer": 2568,
      "cro": 2569,
      "cupboard": 2570,
      "fing": 2571,
      "##os": 2572,
      "garbage": 2573,
      "landscape": 2574,
      "shoulder": 2575,
      "cop": 2576,
      "steep": 2577,
      "flown": 2578,
      "bank": 2579,
      "##bow": 2580,
      "##sted": 2581,
      "cupcakes": 2582,
      "##akers": 2583,
      "##line": 2584,
      "paras": 2585,
      "##essor": 2586,
      "homemade": 2587,
      "hotdogs": 2588,
      "freezer": 2589,
      "advertisement": 2590,
      "ingredients": 2591,
      "foc": 2592,
      "rub": 2593,
      "toaster": 2594,
      "bucket": 2595,
      "covering": 2596,
      "pedestrian": 2597,
      "cool": 2598,
      "selling": 2599,
      "hors": 2600,
      "spread": 2601,
      "opposite": 2602,
      "##eback": 2603,
      "exp": 2604,
      "##ail": 2605,
      "##erries": 2606,
      "images": 2607,
      "return": 2608,
      "mus": 2609,
      "##asing": 2610,
      "holder": 2611,
      "skateboarders": 2612,
      "shirts": 2613,
      "jetliner": 2614,
      "aut": 2615,
      "gro": 2616,
      "##og": 2617,
      "sniff": 2618,
      "exh": 2619,
      "buff": 2620,
      "fluffy": 2621,
      "travels": 2622,
      "workers": 2623,
      "patch": 2624,
      "tongue": 2625,
      "##ctive": 2626,
      "cones": 2627,
      "objects": 2628,
      "sprinkles": 2629,
      "##abit": 2630,
      "##cts": 2631,
      "pitching": 2632,
      "inf": 2633,
      "hits": 2634,
      "##allen": 2635,
      "horseback": 2636,
      "da": 2637,
      "corn": 2638,
      "remo": 2639,
      "muff": 2640,
      "fallen": 2641,
      "tu": 2642,
      "##ole": 2643,
      "downhill": 2644,
      "##ways": 2645,
      "newsp": 2646,
      "puppy": 2647,
      "icing": 2648,
      "aslee": 2649,
      "marble": 2650,
      "blankets": 2651,
      "competition": 2652,
      "mixed": 2653,
      "pushing": 2654,
      "asleep": 2655,
      "stud": 2656,
      "headphones": 2657,
      "##ertain": 2658,
      "strawberries": 2659,
      "stuck": 2660,
      "habit": 2661,
      "skirt": 2662,
      "motorbi": 2663,
      "##umin": 2664,
      "counters": 2665,
      "snowboarders": 2666,
      "pictured": 2667,
      "organ": 2668,
      "rolls": 2669,
      "faces": 2670,
      "visible": 2671,
      "lab": 2672,
      "##time": 2673,
      "stoplight": 2674,
      "neon": 2675,
      "washing": 2676,
      "checkered": 2677,
      "entrance": 2678,
      "golden": 2679,
      "mop": 2680,
      "tab": 2681,
      "whole": 2682,
      "gathering": 2683,
      "blonde": 2684,
      "string": 2685,
      "##aming": 2686,
      "balloon": 2687,
      "slopes": 2688,
      "feat": 2689,
      "climbing": 2690,
      "frosted": 2691,
      "habitat": 2692,
      "tast": 2693,
      "##amic": 2694,
      "cargo": 2695,
      "wears": 2696,
      "##bed": 2697,
      "rep": 2698,
      "reaches": 2699,
      "figure": 2700,
      "##ooks": 2701,
      "teenag": 2702,
      "featuring": 2703,
      "bent": 2704,
      "##ked": 2705,
      "conf": 2706,
      "##ooked": 2707,
      "even": 2708,
      "range": 2709,
      "furnish": 2710,
      "someones": 2711,
      "moves": 2712,
      "stickers": 2713,
      "officers": 2714,
      "transport": 2715,
      "delicious": 2716,
      "lond": 2717,
      "obser": 2718,
      "magn": 2719,
      "london": 2720,
      "au": 2721,
      "##oned": 2722,
      "shiny": 2723,
      "pouring": 2724,
      "name": 2725,
      "carries": 2726,
      "##ental": 2727,
      "feeder": 2728,
      "napkin": 2729,
      "covers": 2730,
      "bare": 2731,
      "olives": 2732,
      "microphone": 2733,
      "first": 2734,
      "far": 2735,
      "pige": 2736,
      "chil": 2737,
      "hers": 2738,
      "wing": 2739,
      "bul": 2740,
      "interior": 2741,
      "##ending": 2742,
      "batting": 2743,
      "rainbow": 2744,
      "great": 2745,
      "basketball": 2746,
      "condim": 2747,
      "jo": 2748,
      "na": 2749,
      "##oming": 2750,
      "cookies": 2751,
      "loung": 2752,
      "laughing": 2753,
      "##orter": 2754,
      "blowing": 2755,
      "figur": 2756,
      "liquid": 2757,
      "fount": 2758,
      "hamb": 2759,
      "tun": 2760,
      "stee": 2761,
      "gravel": 2762,
      "hills": 2763,
      "arch": 2764,
      "potato": 2765,
      "exhib": 2766,
      "hambur": 2767,
      "ahead": 2768,
      "cr": 2769,
      "fountain": 2770,
      "##van": 2771,
      "beef": 2772,
      "desserts": 2773,
      "miniature": 2774,
      "grilled": 2775,
      "enjoy": 2776,
      "prin": 2777,
      "thin": 2778,
      "checking": 2779,
      "cleaning": 2780,
      "jar": 2781,
      "bunk": 2782,
      "opening": 2783,
      "##boy": 2784,
      "indic": 2785,
      "cust": 2786,
      "lighting": 2787,
      "##ough": 2788,
      "fishing": 2789,
      "cardboard": 2790,
      "steeple": 2791,
      "shape": 2792,
      "##aged": 2793,
      "mobile": 2794,
      "##aked": 2795,
      "shru": 2796,
      "weather": 2797,
      "saf": 2798,
      "soldi": 2799,
      "lane": 2800,
      "##wood": 2801,
      "alley": 2802,
      "controls": 2803,
      "den": 2804,
      "trav": 2805,
      "##ently": 2806,
      "sug": 2807,
      "rusty": 2808,
      "turning": 2809,
      "focus": 2810,
      "##rot": 2811,
      "##rial": 2812,
      "conne": 2813,
      "cowboy": 2814,
      "booth": 2815,
      "padd": 2816,
      "sad": 2817,
      "proc": 2818,
      "marin": 2819,
      "size": 2820,
      "tools": 2821,
      "trolley": 2822,
      "displays": 2823,
      "entertain": 2824,
      "foil": 2825,
      "crust": 2826,
      "bookshelf": 2827,
      "tabby": 2828,
      "dot": 2829,
      "jock": 2830,
      "vol": 2831,
      "##ited": 2832,
      "plaid": 2833,
      "goat": 2834,
      "newspaper": 2835,
      "condiments": 2836,
      "pin": 2837,
      "mac": 2838,
      "chees": 2839,
      "clay": 2840,
      "muddy": 2841,
      "fold": 2842,
      "tire": 2843,
      "flooring": 2844,
      "catches": 2845,
      "pickle": 2846,
      "located": 2847,
      "herself": 2848,
      "every": 2849,
      "carts": 2850,
      "backs": 2851,
      "spin": 2852,
      "seats": 2853,
      "rusted": 2854,
      "accessor": 2855,
      "cran": 2856,
      "odd": 2857,
      "##icol": 2858,
      "leag": 2859,
      "indust": 2860,
      "travelling": 2861,
      "rad": 2862,
      "countertop": 2863,
      "##spital": 2864,
      "depic": 2865,
      "bit": 2866,
      "cere": 2867,
      "dump": 2868,
      "convers": 2869,
      "unmade": 2870,
      "multicol": 2871,
      "hospital": 2872,
      "exhibit": 2873,
      "cer": 2874,
      "##iet": 2875,
      "forward": 2876,
      "bri": 2877,
      "stir": 2878,
      "spray": 2879,
      "gloves": 2880,
      "industrial": 2881,
      "##ging": 2882,
      "##anta": 2883,
      "sec": 2884,
      "layer": 2885,
      "story": 2886,
      "jockey": 2887,
      "cafe": 2888,
      "meadow": 2889,
      "##thy": 2890,
      "magaz": 2891,
      "collar": 2892,
      "custom": 2893,
      "eith": 2894,
      "nic": 2895,
      "##was": 2896,
      "##ano": 2897,
      "onl": 2898,
      "balc": 2899,
      "hallway": 2900,
      "taxi": 2901,
      "aerial": 2902,
      "##pl": 2903,
      "##eting": 2904,
      "sharing": 2905,
      "chest": 2906,
      "attire": 2907,
      "matt": 2908,
      "ceramic": 2909,
      "either": 2910,
      "main": 2911,
      "thrown": 2912,
      "stage": 2913,
      "##iled": 2914,
      "scar": 2915,
      "series": 2916,
      "brushes": 2917,
      "helping": 2918,
      "pancakes": 2919,
      "av": 2920,
      "neigh": 2921,
      "posed": 2922,
      "grapes": 2923,
      "driver": 2924,
      "uni": 2925,
      "comforter": 2926,
      "groc": 2927,
      "peel": 2928,
      "##stem": 2929,
      "libr": 2930,
      "words": 2931,
      "system": 2932,
      "##most": 2933,
      "league": 2934,
      "calm": 2935,
      "fil": 2936,
      "ill": 2937,
      "sugar": 2938,
      "accessories": 2939,
      "library": 2940,
      "bill": 2941,
      "##fully": 2942,
      "freshly": 2943,
      "calf": 2944,
      "##uzz": 2945,
      "##lish": 2946,
      "following": 2947,
      "nicely": 2948,
      "biting": 2949,
      "santa": 2950,
      "coach": 2951,
      "steak": 2952,
      "stares": 2953,
      "multicolored": 2954,
      "##washer": 2955,
      "iron": 2956,
      "wings": 2957,
      "##lit": 2958,
      "bagg": 2959,
      "seems": 2960,
      "more": 2961,
      "twin": 2962,
      "lif": 2963,
      "sleeps": 2964,
      "dishwasher": 2965,
      "burger": 2966,
      "cliff": 2967,
      "neighbor": 2968,
      "band": 2969,
      "gaz": 2970,
      "own": 2971,
      "##attered": 2972,
      "chasing": 2973,
      "para": 2974,
      "watering": 2975,
      "susp": 2976,
      "almost": 2977,
      "statues": 2978,
      "designed": 2979,
      "mostly": 2980,
      "chili": 2981,
      "heading": 2982,
      "countryside": 2983,
      "seagulls": 2984,
      "chinese": 2985,
      "audi": 2986,
      "onlook": 2987,
      "mattress": 2988,
      "jumb": 2989,
      "##hood": 2990,
      "frisbees": 2991,
      "picking": 2992,
      "baking": 2993,
      "##here": 2994,
      "railway": 2995,
      "matching": 2996,
      "paws": 2997,
      "nat": 2998,
      "##mer": 2999,
      "##asting": 3000,
      "grand": 3001,
      "apron": 3002,
      "tasty": 3003,
      "mans": 3004,
      "hugging": 3005,
      "bouquet": 3006,
      "marina": 3007,
      "dig": 3008,
      "read": 3009,
      "teams": 3010,
      "amongst": 3011,
      "balcony": 3012,
      "cush": 3013,
      "pow": 3014,
      "canop": 3015,
      "gentleman": 3016,
      "warm": 3017,
      "##ded": 3018,
      "##ker": 3019,
      "horns": 3020,
      "aband": 3021,
      "el": 3022,
      "father": 3023,
      "##stri": 3024,
      "comb": 3025,
      "foreign": 3026,
      "funny": 3027,
      "neighborhood": 3028,
      "cushion": 3029,
      "##work": 3030,
      "##zen": 3031,
      "##ility": 3032,
      "##aste": 3033,
      "advertising": 3034,
      "straight": 3035,
      "dow": 3036,
      "pri": 3037,
      "##esting": 3038,
      "arrow": 3039,
      "serv": 3040,
      "tunnel": 3041,
      "finish": 3042,
      "##allic": 3043,
      "larger": 3044,
      "order": 3045,
      "heavy": 3046,
      "##men": 3047,
      "thick": 3048,
      "tractor": 3049,
      "ribb": 3050,
      "heart": 3051,
      "cuts": 3052,
      "dryer": 3053,
      "bakery": 3054,
      "sniffing": 3055,
      "hamburger": 3056,
      "baggage": 3057,
      "##isting": 3058,
      "##ute": 3059,
      "##stand": 3060,
      "metallic": 3061,
      "leaving": 3062,
      "chopped": 3063,
      "buffet": 3064,
      "jumbo": 3065,
      "cig": 3066,
      "vend": 3067,
      "lemon": 3068,
      "sunlight": 3069,
      "prepare": 3070,
      "trunks": 3071,
      "owner": 3072,
      "mask": 3073,
      "abandoned": 3074,
      "fans": 3075,
      "##tor": 3076,
      "beg": 3077,
      "typing": 3078,
      "hose": 3079,
      "dust": 3080,
      "fed": 3081,
      "poster": 3082,
      "cigar": 3083,
      "tin": 3084,
      "winds": 3085,
      "##ggles": 3086,
      "chewing": 3087,
      "worker": 3088,
      "camp": 3089,
      "move": 3090,
      "##ters": 3091,
      "fixture": 3092,
      "attempt": 3093,
      "natural": 3094,
      "downt": 3095,
      "sets": 3096,
      "resort": 3097,
      "formal": 3098,
      "motorbike": 3099,
      "folded": 3100,
      "dusk": 3101,
      "##olf": 3102,
      "##quets": 3103,
      "driveway": 3104,
      "dimly": 3105,
      "organized": 3106,
      "downtown": 3107,
      "jers": 3108,
      "tries": 3109,
      "##gress": 3110,
      "rose": 3111,
      "##ried": 3112,
      "busses": 3113,
      "disp": 3114,
      "entertainment": 3115,
      "mom": 3116,
      "pony": 3117,
      "level": 3118,
      "cold": 3119,
      "rails": 3120,
      "framed": 3121,
      "circular": 3122,
      "audience": 3123,
      "mass": 3124,
      "pop": 3125,
      "unus": 3126,
      "candy": 3127,
      "hung": 3128,
      "bearded": 3129,
      "castle": 3130,
      "jersey": 3131,
      "cases": 3132,
      "ram": 3133,
      "connected": 3134,
      "strol": 3135,
      "motorcyclist": 3136,
      "lighthouse": 3137,
      "boots": 3138,
      "turkey": 3139,
      "bra": 3140,
      "emb": 3141,
      "##arp": 3142,
      "##ront": 3143,
      "shining": 3144,
      "progress": 3145,
      "bars": 3146,
      "devices": 3147,
      "onlookers": 3148,
      "sla": 3149,
      "##bble": 3150,
      "cupcake": 3151,
      "propped": 3152,
      "helmets": 3153,
      "##ival": 3154,
      "magnets": 3155,
      "bay": 3156,
      "cupboards": 3157,
      "son": 3158,
      "instru": 3159,
      "bund": 3160,
      "##ightly": 3161,
      "sailboat": 3162,
      "powder": 3163,
      "id": 3164,
      "contents": 3165,
      "guard": 3166,
      "toothp": 3167,
      "ru": 3168,
      "##ades": 3169,
      "produ": 3170,
      "fab": 3171,
      "hiding": 3172,
      "##lower": 3173,
      "tablet": 3174,
      "piano": 3175,
      "unc": 3176,
      "besides": 3177,
      "obst": 3178,
      "evening": 3179,
      "lounging": 3180,
      "canopy": 3181,
      "ring": 3182,
      "upon": 3183,
      "backyard": 3184,
      "racquets": 3185,
      "quiet": 3186,
      "tossing": 3187,
      "finger": 3188,
      "ple": 3189,
      "##coming": 3190,
      "##ord": 3191,
      "flood": 3192,
      "point": 3193,
      "prot": 3194,
      "chefs": 3195,
      "storage": 3196,
      "follow": 3197,
      "adorable": 3198,
      "furry": 3199,
      "wit": 3200,
      "##alley": 3201,
      "kitty": 3202,
      "desc": 3203,
      "males": 3204,
      "savan": 3205,
      "amount": 3206,
      "bikers": 3207,
      "porch": 3208,
      "scarf": 3209,
      "ears": 3210,
      "golf": 3211,
      "##zy": 3212,
      "parrot": 3213,
      "##ama": 3214,
      "rec": 3215,
      "##ift": 3216,
      "reflected": 3217,
      "obstac": 3218,
      "pu": 3219,
      "##pher": 3220,
      "##mes": 3221,
      "##chair": 3222,
      "raised": 3223,
      "##ments": 3224,
      "monkey": 3225,
      "grocery": 3226,
      "illumin": 3227,
      "##ung": 3228,
      "thumb": 3229,
      "licking": 3230,
      "barrel": 3231,
      "belt": 3232,
      "wilder": 3233,
      "gri": 3234,
      "lang": 3235,
      "rel": 3236,
      "oper": 3237,
      "daytime": 3238,
      "##vely": 3239,
      "silverware": 3240,
      "separate": 3241,
      "##vated": 3242,
      "stran": 3243,
      "hardwood": 3244,
      "present": 3245,
      "lambs": 3246,
      "spinach": 3247,
      "langu": 3248,
      "##ze": 3249,
      "skiis": 3250,
      "heal": 3251,
      "scattered": 3252,
      "saying": 3253,
      "##istic": 3254,
      "ori": 3255,
      "##mons": 3256,
      "##urf": 3257,
      "grazes": 3258,
      "warning": 3259,
      "simple": 3260,
      "dispens": 3261,
      "savanna": 3262,
      "wilderness": 3263,
      "lear": 3264,
      "collage": 3265,
      "freight": 3266,
      "squat": 3267,
      "football": 3268,
      "unique": 3269,
      "fabric": 3270,
      "ath": 3271,
      "##inds": 3272,
      "crosses": 3273,
      "word": 3274,
      "works": 3275,
      "##usting": 3276,
      "smoking": 3277,
      "##oe": 3278,
      "##use": 3279,
      "##ened": 3280,
      "lemons": 3281,
      "strip": 3282,
      "cookie": 3283,
      "shaking": 3284,
      "circle": 3285,
      "balancing": 3286,
      "music": 3287,
      "fair": 3288,
      "mel": 3289,
      "than": 3290,
      "bats": 3291,
      "##ngle": 3292,
      "prote": 3293,
      "jungle": 3294,
      "awa": 3295,
      "link": 3296,
      "pand": 3297,
      "##ddle": 3298,
      "logs": 3299,
      "bikini": 3300,
      "stretching": 3301,
      "comfort": 3302,
      "magazine": 3303,
      "##pers": 3304,
      "##ka": 3305,
      "##za": 3306,
      "##illa": 3307,
      "pean": 3308,
      "tag": 3309,
      "friend": 3310,
      "peeking": 3311,
      "##gy": 3312,
      "##nge": 3313,
      "ant": 3314,
      "really": 3315,
      "played": 3316,
      "goggles": 3317,
      "screens": 3318,
      "leafy": 3319,
      "safety": 3320,
      "talk": 3321,
      "##ises": 3322,
      "parach": 3323,
      "decoration": 3324,
      "tourists": 3325,
      "fauc": 3326,
      "peeled": 3327,
      "lounge": 3328,
      "sizes": 3329,
      "delivery": 3330,
      "cu": 3331,
      "##where": 3332,
      "storm": 3333,
      "need": 3334,
      "shut": 3335,
      "##illing": 3336,
      "drawers": 3337,
      "ladder": 3338,
      "numerous": 3339,
      "moped": 3340,
      "nuts": 3341,
      "##selves": 3342,
      "plan": 3343,
      "terra": 3344,
      "suspended": 3345,
      "hi": 3346,
      "ut": 3347,
      "skin": 3348,
      "volley": 3349,
      "ke": 3350,
      "##xed": 3351,
      "themselves": 3352,
      "furnished": 3353,
      "cigarette": 3354,
      "fixing": 3355,
      "sne": 3356,
      "indoors": 3357,
      "ribbon": 3358,
      "fest": 3359,
      "fighting": 3360,
      "##rib": 3361,
      "rece": 3362,
      "##ipped": 3363,
      "pairs": 3364,
      "pickles": 3365,
      "##ooters": 3366,
      "rom": 3367,
      "##aks": 3368,
      "##pass": 3369,
      "courtyard": 3370,
      "##aker": 3371,
      "classroom": 3372,
      "complete": 3373,
      "crane": 3374,
      "plaza": 3375,
      "clust": 3376,
      "towering": 3377,
      "##ught": 3378,
      "shorel": 3379,
      "muffin": 3380,
      "balloons": 3381,
      "pigeons": 3382,
      "bin": 3383,
      "hip": 3384,
      "reg": 3385,
      "surfs": 3386,
      "scooters": 3387,
      "haul": 3388,
      "cereal": 3389,
      "service": 3390,
      "healthy": 3391,
      "shoreline": 3392,
      "##orting": 3393,
      "lean": 3394,
      "cellphones": 3395,
      "goal": 3396,
      "sticker": 3397,
      "should": 3398,
      "strange": 3399,
      "tus": 3400,
      "##front": 3401,
      "inst": 3402,
      "closet": 3403,
      "gran": 3404,
      "##ells": 3405,
      "wear": 3406,
      "motorcyclists": 3407,
      "##ument": 3408,
      "soap": 3409,
      "doub": 3410,
      "canoe": 3411,
      "quil": 3412,
      "students": 3413,
      "##af": 3414,
      "too": 3415,
      "stops": 3416,
      "buns": 3417,
      "headed": 3418,
      "load": 3419,
      "photographs": 3420,
      "army": 3421,
      "foggy": 3422,
      "rustic": 3423,
      "beverages": 3424,
      "consisting": 3425,
      "process": 3426,
      "toothpaste": 3427,
      "cone": 3428,
      "vegetation": 3429,
      "knit": 3430,
      "barri": 3431,
      "trim": 3432,
      "shops": 3433,
      "##bbing": 3434,
      "tusks": 3435,
      "grin": 3436,
      "reach": 3437,
      "skyline": 3438,
      "project": 3439,
      "speakers": 3440,
      "obstacle": 3441,
      "panda": 3442,
      "mall": 3443,
      "##att": 3444,
      "shri": 3445,
      "slightly": 3446,
      "##lash": 3447,
      "points": 3448,
      "berries": 3449,
      "det": 3450,
      "fat": 3451,
      "##hol": 3452,
      "stock": 3453,
      "comes": 3454,
      "slow": 3455,
      "spac": 3456,
      "softball": 3457,
      "oriental": 3458,
      "eu": 3459,
      "##rat": 3460,
      "##lines": 3461,
      "arena": 3462,
      "peace": 3463,
      "noteb": 3464,
      "wrapp": 3465,
      "designs": 3466,
      "act": 3467,
      "valley": 3468,
      "##oney": 3469,
      "bedsp": 3470,
      "meeting": 3471,
      "##anger": 3472,
      "lob": 3473,
      "##wards": 3474,
      "charact": 3475,
      "puts": 3476,
      "##gie": 3477,
      "sideways": 3478,
      "caul": 3479,
      "arri": 3480,
      "silhou": 3481,
      "pedestal": 3482,
      "positioned": 3483,
      "observing": 3484,
      "dan": 3485,
      "pump": 3486,
      "wading": 3487,
      "##athers": 3488,
      "pens": 3489,
      "kept": 3490,
      "shrimp": 3491,
      "goo": 3492,
      "vil": 3493,
      "shel": 3494,
      "groups": 3495,
      "bathing": 3496,
      "eleg": 3497,
      "##iflower": 3498,
      "maj": 3499,
      "fully": 3500,
      "crossed": 3501,
      "slicing": 3502,
      "exam": 3503,
      "approaches": 3504,
      "paddling": 3505,
      "fixtures": 3506,
      "dispenser": 3507,
      "village": 3508,
      "may": 3509,
      "##val": 3510,
      "stem": 3511,
      "##raying": 3512,
      "airlines": 3513,
      "waterway": 3514,
      "conve": 3515,
      "catchers": 3516,
      "##ashed": 3517,
      "material": 3518,
      "exc": 3519,
      "direct": 3520,
      "cans": 3521,
      "fry": 3522,
      "min": 3523,
      "will": 3524,
      "##und": 3525,
      "##oping": 3526,
      "beak": 3527,
      "grabbing": 3528,
      "##toon": 3529,
      "vendor": 3530,
      "wand": 3531,
      "str": 3532,
      "##unk": 3533,
      "reflecting": 3534,
      "snacks": 3535,
      "attempts": 3536,
      "granite": 3537,
      "euro": 3538,
      "cauliflower": 3539,
      "elegant": 3540,
      "lis": 3541,
      "##ta": 3542,
      "##ider": 3543,
      "##icle": 3544,
      "##ebo": 3545,
      "seven": 3546,
      "colle": 3547,
      "leaping": 3548,
      "classic": 3549,
      "teenager": 3550,
      "illuminated": 3551,
      "faucet": 3552,
      "fol": 3553,
      "wre": 3554,
      "ware": 3555,
      "any": 3556,
      "caught": 3557,
      "waving": 3558,
      "monument": 3559,
      "owl": 3560,
      "sailboats": 3561,
      "cuc": 3562,
      "trough": 3563,
      "##fl": 3564,
      "ins": 3565,
      "forks": 3566,
      "coast": 3567,
      "lighted": 3568,
      "numbers": 3569,
      "note": 3570,
      "bald": 3571,
      "repair": 3572,
      "cheesy": 3573,
      "conversation": 3574,
      "bedspread": 3575,
      "cucumb": 3576,
      "tight": 3577,
      "##icop": 3578,
      "blur": 3579,
      "desks": 3580,
      "##apple": 3581,
      "knives": 3582,
      "helicop": 3583,
      "##cloth": 3584,
      "afric": 3585,
      "drawing": 3586,
      "patterned": 3587,
      "crash": 3588,
      "trop": 3589,
      "##ined": 3590,
      "##erence": 3591,
      "heard": 3592,
      "themed": 3593,
      "goods": 3594,
      "unusual": 3595,
      "flooded": 3596,
      "peanut": 3597,
      "kay": 3598,
      "tier": 3599,
      "leads": 3600,
      "raft": 3601,
      "diam": 3602,
      "married": 3603,
      "step": 3604,
      "had": 3605,
      "##vest": 3606,
      "sto": 3607,
      "cobble": 3608,
      "herding": 3609,
      "button": 3610,
      "europe": 3611,
      "kis": 3612,
      "##right": 3613,
      "tags": 3614,
      "split": 3615,
      "mov": 3616,
      "much": 3617,
      "interesting": 3618,
      "portra": 3619,
      "second": 3620,
      "diamond": 3621,
      "##pon": 3622,
      "skater": 3623,
      "greenery": 3624,
      "deer": 3625,
      "dried": 3626,
      "keys": 3627,
      "spoons": 3628,
      "factor": 3629,
      "terrain": 3630,
      "cluster": 3631,
      "tropical": 3632,
      "within": 3633,
      "roast": 3634,
      "clos": 3635,
      "basin": 3636,
      "##ific": 3637,
      "boogie": 3638,
      "freeway": 3639,
      "strapped": 3640,
      "individuals": 3641,
      "drying": 3642,
      "eight": 3643,
      "ostri": 3644,
      "tasting": 3645,
      "recor": 3646,
      "blu": 3647,
      "nightstand": 3648,
      "helicopter": 3649,
      "bad": 3650,
      "##ities": 3651,
      "atten": 3652,
      "stopping": 3653,
      "##aging": 3654,
      "unf": 3655,
      "piles": 3656,
      "turns": 3657,
      "print": 3658,
      "roman": 3659,
      "quilt": 3660,
      "##cast": 3661,
      "##kins": 3662,
      "##ination": 3663,
      "##labor": 3664,
      "roaming": 3665,
      "tablecloth": 3666,
      "histor": 3667,
      "seas": 3668,
      "poss": 3669,
      "overpass": 3670,
      "splash": 3671,
      "##angular": 3672,
      "english": 3673,
      "pattern": 3674,
      "celebrating": 3675,
      "autom": 3676,
      "daugh": 3677,
      "massive": 3678,
      "doubles": 3679,
      "convey": 3680,
      "now": 3681,
      "##hed": 3682,
      "##pid": 3683,
      "##my": 3684,
      "stable": 3685,
      "upright": 3686,
      "cartoon": 3687,
      "limb": 3688,
      "compan": 3689,
      "##boat": 3690,
      "costumes": 3691,
      "factory": 3692,
      "bor": 3693,
      "hal": 3694,
      "##dition": 3695,
      "site": 3696,
      "spraying": 3697,
      "cellular": 3698,
      "canal": 3699,
      "sweat": 3700,
      "ornam": 3701,
      "relax": 3702,
      "conference": 3703,
      "transportation": 3704,
      "soldiers": 3705,
      "windsurf": 3706,
      "language": 3707,
      "utility": 3708,
      "shades": 3709,
      "airbor": 3710,
      "tape": 3711,
      "photographer": 3712,
      "garnish": 3713,
      "human": 3714,
      "pineapple": 3715,
      "figurine": 3716,
      "come": 3717,
      "stance": 3718,
      "buggy": 3719,
      "tents": 3720,
      "recl": 3721,
      "##aps": 3722,
      "indicating": 3723,
      "cel": 3724,
      "handing": 3725,
      "mi": 3726,
      "polka": 3727,
      "gives": 3728,
      "wrapper": 3729,
      "bis": 3730,
      "eag": 3731,
      "jap": 3732,
      "ren": 3733,
      "waff": 3734,
      "##oored": 3735,
      "##ably": 3736,
      "elevated": 3737,
      "boarders": 3738,
      "dec": 3739,
      "unlo": 3740,
      "knee": 3741,
      "depot": 3742,
      "console": 3743,
      "japan": 3744,
      "cree": 3745,
      "love": 3746,
      "##drop": 3747,
      "##iers": 3748,
      "rect": 3749,
      "bagel": 3750,
      "drawer": 3751,
      "butt": 3752,
      "adjusting": 3753,
      "thumbs": 3754,
      "notebook": 3755,
      "portrait": 3756,
      "elabor": 3757,
      "hooked": 3758,
      "tiss": 3759,
      "##vi": 3760,
      "weird": 3761,
      "dest": 3762,
      "wake": 3763,
      "brit": 3764,
      "curve": 3765,
      "posts": 3766,
      "brief": 3767,
      "grinding": 3768,
      "crib": 3769,
      "naked": 3770,
      "##ode": 3771,
      "thing": 3772,
      "sharp": 3773,
      "##sticks": 3774,
      "tex": 3775,
      "canad": 3776,
      "speaking": 3777,
      "winding": 3778,
      "extended": 3779,
      "ident": 3780,
      "learning": 3781,
      "airborne": 3782,
      "jars": 3783,
      "keep": 3784,
      "mashed": 3785,
      "##rome": 3786,
      "backdrop": 3787,
      "compartment": 3788,
      "alco": 3789,
      "##ills": 3790,
      "cleaned": 3791,
      "circus": 3792,
      "alcohol": 3793,
      "grown": 3794,
      "##ret": 3795,
      "blood": 3796,
      "float": 3797,
      "wicker": 3798,
      "hangar": 3799,
      "world": 3800,
      "include": 3801,
      "geese": 3802,
      "products": 3803,
      "savannah": 3804,
      "parachute": 3805,
      "##ky": 3806,
      "##bag": 3807,
      "oppon": 3808,
      "drivers": 3809,
      "babies": 3810,
      "flav": 3811,
      "teenage": 3812,
      "begin": 3813,
      "frying": 3814,
      "##tie": 3815,
      "##met": 3816,
      "##alt": 3817,
      "##eter": 3818,
      "overcast": 3819,
      "rowing": 3820,
      "windowsill": 3821,
      "signals": 3822,
      "toasted": 3823,
      "kissing": 3824,
      "pug": 3825,
      "##ws": 3826,
      "third": 3827,
      "##ico": 3828,
      "snu": 3829,
      "carry": 3830,
      "headboard": 3831,
      "prov": 3832,
      "worn": 3833,
      "jackets": 3834,
      "pathway": 3835,
      "sails": 3836,
      "farmers": 3837,
      "happ": 3838,
      "practice": 3839,
      "festival": 3840,
      "daughter": 3841,
      "##ditional": 3842,
      "tim": 3843,
      "##vering": 3844,
      "cathed": 3845,
      "youth": 3846,
      "metro": 3847,
      "seating": 3848,
      "amid": 3849,
      "panel": 3850,
      "chained": 3851,
      "china": 3852,
      "customers": 3853,
      "squatting": 3854,
      "hauling": 3855,
      "listen": 3856,
      "cathedral": 3857,
      "nur": 3858,
      "##ales": 3859,
      "##mit": 3860,
      "##acks": 3861,
      "##stone": 3862,
      "trio": 3863,
      "enter": 3864,
      "message": 3865,
      "figurines": 3866,
      "billboard": 3867,
      "digital": 3868,
      "stroller": 3869,
      "rot": 3870,
      "##den": 3871,
      "thre": 3872,
      "##ared": 3873,
      "##idy": 3874,
      "##andel": 3875,
      "such": 3876,
      "logo": 3877,
      "photographed": 3878,
      "extra": 3879,
      "blueb": 3880,
      "cast": 3881,
      "carous": 3882,
      "lie": 3883,
      "deser": 3884,
      "asph": 3885,
      "##shirt": 3886,
      "##ational": 3887,
      "backpacks": 3888,
      "depicting": 3889,
      "uncooked": 3890,
      "british": 3891,
      "##uits": 3892,
      "shap": 3893,
      "##eeled": 3894,
      "meats": 3895,
      "cloud": 3896,
      "package": 3897,
      "artistic": 3898,
      "crack": 3899,
      "pig": 3900,
      "##bing": 3901,
      "plains": 3902,
      "towing": 3903,
      "gravy": 3904,
      "scenic": 3905,
      "special": 3906,
      "medium": 3907,
      "sneakers": 3908,
      "african": 3909,
      "##gers": 3910,
      "stom": 3911,
      "pears": 3912,
      "##urning": 3913,
      "shines": 3914,
      "chrome": 3915,
      "skysc": 3916,
      "sau": 3917,
      "knees": 3918,
      "barbe": 3919,
      "attract": 3920,
      "commode": 3921,
      "roller": 3922,
      "racks": 3923,
      "staircase": 3924,
      "appear": 3925,
      "carousel": 3926,
      "asphalt": 3927,
      "skyscra": 3928,
      "call": 3929,
      "rob": 3930,
      "placing": 3931,
      "disk": 3932,
      "intera": 3933,
      "##ests": 3934,
      "barbed": 3935,
      "returning": 3936,
      "kettle": 3937,
      "adorned": 3938,
      "shuttle": 3939,
      "warehouse": 3940,
      "closely": 3941,
      "conveyor": 3942,
      "ger": 3943,
      "hind": 3944,
      "sid": 3945,
      "##ula": 3946,
      "##ners": 3947,
      "##ops": 3948,
      "force": 3949,
      "imp": 3950,
      "aged": 3951,
      "##pod": 3952,
      "competing": 3953,
      "strawberry": 3954,
      "printer": 3955,
      "powdered": 3956,
      "major": 3957,
      "stomach": 3958,
      "tatt": 3959,
      "##ai": 3960,
      "bean": 3961,
      "grab": 3962,
      "press": 3963,
      "keyboards": 3964,
      "marked": 3965,
      "planter": 3966,
      "tube": 3967,
      "stalls": 3968,
      "sweet": 3969,
      "chopsticks": 3970,
      "cruise": 3971,
      "cable": 3972,
      "cooks": 3973,
      "pay": 3974,
      "##life": 3975,
      "ones": 3976,
      "places": 3977,
      "selection": 3978,
      "cola": 3979,
      "emer": 3980,
      "donkey": 3981,
      "stripes": 3982,
      "tourist": 3983,
      "lobby": 3984,
      "directly": 3985,
      "deserted": 3986,
      "foli": 3987,
      "##ately": 3988,
      "anch": 3989,
      "when": 3990,
      "##ution": 3991,
      "##elly": 3992,
      "suite": 3993,
      "roadside": 3994,
      "towers": 3995,
      "check": 3996,
      "stationary": 3997,
      "rocking": 3998,
      "expo": 3999,
      "##deled": 4000,
      "electrical": 4001,
      "calico": 4002,
      "muffins": 4003,
      "crates": 4004,
      "shrubs": 4005,
      "inspe": 4006,
      "tattoo": 4007,
      "gy": 4008,
      "sat": 4009,
      "were": 4010,
      "##hand": 4011,
      "skil": 4012,
      "care": 4013,
      "super": 4014,
      "coke": 4015,
      "pocket": 4016,
      "slide": 4017,
      "memb": 4018,
      "potter": 4019,
      "help": 4020,
      "subur": 4021,
      "entering": 4022,
      "newly": 4023,
      "soldier": 4024,
      "foliage": 4025,
      "gour": 4026,
      "##view": 4027,
      "##ient": 4028,
      "##ains": 4029,
      "boardwalk": 4030,
      "raw": 4031,
      "curious": 4032,
      "bookcase": 4033,
      "stores": 4034,
      "extre": 4035,
      "stretched": 4036,
      "stools": 4037,
      "crate": 4038,
      "macar": 4039,
      "puddle": 4040,
      "barrier": 4041,
      "ostrich": 4042,
      "mixture": 4043,
      "opponent": 4044,
      "dash": 4045,
      "eas": 4046,
      "names": 4047,
      "tee": 4048,
      "tiger": 4049,
      "wo": 4050,
      "##ively": 4051,
      "thru": 4052,
      "##otic": 4053,
      "frozen": 4054,
      "suv": 4055,
      "podi": 4056,
      "capt": 4057,
      "text": 4058,
      "meas": 4059,
      "midair": 4060,
      "dressing": 4061,
      "array": 4062,
      "stepping": 4063,
      "dual": 4064,
      "paintings": 4065,
      "cubicle": 4066,
      "crouching": 4067,
      "archite": 4068,
      "european": 4069,
      "podium": 4070,
      "lower": 4071,
      "rings": 4072,
      "yog": 4073,
      "mane": 4074,
      "intently": 4075,
      "##ummy": 4076,
      "scrat": 4077,
      "diner": 4078,
      "wildlife": 4079,
      "wheelchair": 4080,
      "fog": 4081,
      "harness": 4082,
      "balances": 4083,
      "radio": 4084,
      "shoulders": 4085,
      "snugg": 4086,
      "shapes": 4087,
      "ferry": 4088,
      "gun": 4089,
      "nest": 4090,
      "##tru": 4091,
      "necks": 4092,
      "streetlight": 4093,
      "##amas": 4094,
      "##ccup": 4095,
      "dip": 4096,
      "runner": 4097,
      "checks": 4098,
      "unit": 4099,
      "envi": 4100,
      "loaf": 4101,
      "maroon": 4102,
      "competit": 4103,
      "angle": 4104,
      "dusty": 4105,
      "silhouette": 4106,
      "listening": 4107,
      "vac": 4108,
      "##gen": 4109,
      "##ls": 4110,
      "##rong": 4111,
      "tort": 4112,
      "chandel": 4113,
      "lego": 4114,
      "bicyclist": 4115,
      "uniformed": 4116,
      "##ronment": 4117,
      "partly": 4118,
      "artwork": 4119,
      "spotted": 4120,
      "infant": 4121,
      "priv": 4122,
      "antel": 4123,
      "leaned": 4124,
      "border": 4125,
      "rectangular": 4126,
      "texting": 4127,
      "macaroni": 4128,
      "environment": 4129,
      "##cue": 4130,
      "##father": 4131,
      "##lain": 4132,
      "##iday": 4133,
      "##ams": 4134,
      "caption": 4135,
      "hear": 4136,
      "tagged": 4137,
      "divid": 4138,
      "feeds": 4139,
      "policeman": 4140,
      "outfits": 4141,
      "portion": 4142,
      "parasol": 4143,
      "rubbing": 4144,
      "express": 4145,
      "tuxed": 4146,
      "operating": 4147,
      "blurred": 4148,
      "dug": 4149,
      "gall": 4150,
      "mes": 4151,
      "try": 4152,
      "##een": 4153,
      "cherry": 4154,
      "##cept": 4155,
      "##rup": 4156,
      "sleep": 4157,
      "shots": 4158,
      "paj": 4159,
      "indian": 4160,
      "claim": 4161,
      "starting": 4162,
      "syrup": 4163,
      "grandfather": 4164,
      "cudd": 4165,
      "spacious": 4166,
      "inform": 4167,
      "peering": 4168,
      "signage": 4169,
      "blinds": 4170,
      "sum": 4171,
      "spat": 4172,
      "firetru": 4173,
      "floats": 4174,
      "dipping": 4175,
      "apart": 4176,
      "lodge": 4177,
      "refrigerators": 4178,
      "touch": 4179,
      "excited": 4180,
      "elaborate": 4181,
      "skillet": 4182,
      "ox": 4183,
      "##gn": 4184,
      "##ooth": 4185,
      "needs": 4186,
      "pies": 4187,
      "##ured": 4188,
      "grassland": 4189,
      "serves": 4190,
      "curved": 4191,
      "craft": 4192,
      "speeding": 4193,
      "stretches": 4194,
      "sprinkled": 4195,
      "figures": 4196,
      "tissue": 4197,
      "bamb": 4198,
      "##urt": 4199,
      "walled": 4200,
      "hitter": 4201,
      "stacks": 4202,
      "quick": 4203,
      "flipping": 4204,
      "fingers": 4205,
      "remodeled": 4206,
      "teenagers": 4207,
      "athlet": 4208,
      "skinny": 4209,
      "cobblestone": 4210,
      "gym": 4211,
      "bamboo": 4212,
      "hut": 4213,
      "si": 4214,
      "san": 4215,
      "##ino": 4216,
      "ships": 4217,
      "##loy": 4218,
      "dozen": 4219,
      "##celain": 4220,
      "younger": 4221,
      "##shi": 4222,
      "demon": 4223,
      "unri": 4224,
      "bicyclists": 4225,
      "porcelain": 4226,
      "else": 4227,
      "movie": 4228,
      "done": 4229,
      "tidy": 4230,
      "##field": 4231,
      "start": 4232,
      "traditional": 4233,
      "plu": 4234,
      "plush": 4235,
      "somewhere": 4236,
      "weeds": 4237,
      "capped": 4238,
      "menu": 4239,
      "##acting": 4240,
      "emp": 4241,
      "sofas": 4242,
      "letter": 4243,
      "shrubb": 4244,
      "pajamas": 4245,
      "junk": 4246,
      "rab": 4247,
      "york": 4248,
      "##fall": 4249,
      "##fts": 4250,
      "##icip": 4251,
      "rode": 4252,
      "parts": 4253,
      "skiier": 4254,
      "alarm": 4255,
      "tech": 4256,
      "bowling": 4257,
      "mountainous": 4258,
      "brid": 4259,
      "clearing": 4260,
      "engaged": 4261,
      "entree": 4262,
      "biker": 4263,
      "stunts": 4264,
      "parasa": 4265,
      "japanese": 4266,
      "gourmet": 4267,
      "aven": 4268,
      "dam": 4269,
      "jelly": 4270,
      "holiday": 4271,
      "##umn": 4272,
      "mail": 4273,
      "sauc": 4274,
      "carriages": 4275,
      "appliance": 4276,
      "washer": 4277,
      "glowing": 4278,
      "spots": 4279,
      "##inished": 4280,
      "rubber": 4281,
      "identical": 4282,
      "ave": 4283,
      "fit": 4284,
      "jeep": 4285,
      "pork": 4286,
      "rough": 4287,
      "##ose": 4288,
      "##pris": 4289,
      "though": 4290,
      "stump": 4291,
      "##oose": 4292,
      "real": 4293,
      "treats": 4294,
      "clown": 4295,
      "viewed": 4296,
      "bigger": 4297,
      "barren": 4298,
      "balance": 4299,
      "farmer": 4300,
      "awaiting": 4301,
      "shrubbery": 4302,
      "cot": 4303,
      "ed": 4304,
      "gaming": 4305,
      "map": 4306,
      "pane": 4307,
      "rout": 4308,
      "##obile": 4309,
      "##mar": 4310,
      "##ckets": 4311,
      "##icap": 4312,
      "##str": 4313,
      "ottom": 4314,
      "motel": 4315,
      "handicap": 4316,
      "united": 4317,
      "cooling": 4318,
      "infl": 4319,
      "unfinished": 4320,
      "german": 4321,
      "suburban": 4322,
      "spatula": 4323,
      "iced": 4324,
      "king": 4325,
      "##rent": 4326,
      "##etti": 4327,
      "##utes": 4328,
      "fix": 4329,
      "sushi": 4330,
      "banner": 4331,
      "pitched": 4332,
      "notes": 4333,
      "pigeon": 4334,
      "dancing": 4335,
      "possib": 4336,
      "automobile": 4337,
      "reno": 4338,
      "avenue": 4339,
      "fer": 4340,
      "lon": 4341,
      "moored": 4342,
      "peng": 4343,
      "sle": 4344,
      "tying": 4345,
      "##car": 4346,
      "##onal": 4347,
      "tram": 4348,
      "upward": 4349,
      "capture": 4350,
      "altered": 4351,
      "scra": 4352,
      "bunny": 4353,
      "cutter": 4354,
      "lining": 4355,
      "haw": 4356,
      "stripped": 4357,
      "engines": 4358,
      "penc": 4359,
      "chickens": 4360,
      "bulls": 4361,
      "separated": 4362,
      "navy": 4363,
      "hiking": 4364,
      "celery": 4365,
      "bisc": 4366,
      "possibly": 4367,
      "file": 4368,
      "mural": 4369,
      "que": 4370,
      "tro": 4371,
      "##sa": 4372,
      "##suit": 4373,
      "doz": 4374,
      "##ache": 4375,
      "cock": 4376,
      "lime": 4377,
      "windsh": 4378,
      "handbag": 4379,
      "treat": 4380,
      "swung": 4381,
      "viewing": 4382,
      "maker": 4383,
      "ovens": 4384,
      "##izon": 4385,
      "faced": 4386,
      "equipped": 4387,
      "plent": 4388,
      "protest": 4389,
      "attractive": 4390,
      "chandelier": 4391,
      "rabb": 4392,
      "pengu": 4393,
      "rh": 4394,
      "##eat": 4395,
      "##ake": 4396,
      "##ares": 4397,
      "tor": 4398,
      "##orn": 4399,
      "shag": 4400,
      "towed": 4401,
      "scru": 4402,
      "spa": 4403,
      "teaching": 4404,
      "steer": 4405,
      "garlic": 4406,
      "silly": 4407,
      "cubs": 4408,
      "lifting": 4409,
      "hipster": 4410,
      "eagle": 4411,
      "buttons": 4412,
      "crackers": 4413,
      "bid": 4414,
      "fuzz": 4415,
      "wool": 4416,
      "##lt": 4417,
      "champ": 4418,
      "##semb": 4419,
      "horned": 4420,
      "horizon": 4421,
      "lead": 4422,
      "wallp": 4423,
      "opens": 4424,
      "locked": 4425,
      "pads": 4426,
      "local": 4427,
      "blocks": 4428,
      "hoodie": 4429,
      "windshield": 4430,
      "fuzzy": 4431,
      "fle": 4432,
      "letting": 4433,
      "mer": 4434,
      "##ether": 4435,
      "peas": 4436,
      "##rie": 4437,
      "outst": 4438,
      "bends": 4439,
      "def": 4440,
      "handles": 4441,
      "mean": 4442,
      "breaking": 4443,
      "attent": 4444,
      "forested": 4445,
      "necktie": 4446,
      "outfield": 4447,
      "falls": 4448,
      "powered": 4449,
      "tiered": 4450,
      "company": 4451,
      "happily": 4452,
      "yogurt": 4453,
      "aff": 4454,
      "dun": 4455,
      "fut": 4456,
      "ki": 4457,
      "pil": 4458,
      "til": 4459,
      "##aves": 4460,
      "##noon": 4461,
      "##fo": 4462,
      "whipped": 4463,
      "wheeled": 4464,
      "grouped": 4465,
      "rim": 4466,
      "##imate": 4467,
      "baref": 4468,
      "afternoon": 4469,
      "retrie": 4470,
      "letters": 4471,
      "bullet": 4472,
      "unloading": 4473,
      "tuxedo": 4474,
      "ottoman": 4475,
      "shaggy": 4476,
      "pir": 4477,
      "##yed": 4478,
      "##atable": 4479,
      "waterfall": 4480,
      "playground": 4481,
      "compact": 4482,
      "scale": 4483,
      "adm": 4484,
      "camer": 4485,
      "ridding": 4486,
      "breast": 4487,
      "pitchers": 4488,
      "stripe": 4489,
      "crest": 4490,
      "foam": 4491,
      "stained": 4492,
      "blocking": 4493,
      "interacting": 4494,
      "decked": 4495,
      "crouched": 4496,
      "furnishings": 4497,
      "windsurfing": 4498,
      "wallpaper": 4499,
      "drop": 4500,
      "money": 4501,
      "pou": 4502,
      "##ually": 4503,
      "##ma": 4504,
      "##owers": 4505,
      "situ": 4506,
      "surpris": 4507,
      "poised": 4508,
      "toiletries": 4509,
      "caution": 4510,
      "alumin": 4511,
      "slides": 4512,
      "hanger": 4513,
      "##acent": 4514,
      "delta": 4515,
      "##vention": 4516,
      "visit": 4517,
      "called": 4518,
      "butterf": 4519,
      "adjacent": 4520,
      "avoc": 4521,
      "grizz": 4522,
      "relish": 4523,
      "dozens": 4524,
      "outstret": 4525,
      "##rit": 4526,
      "##mor": 4527,
      "##andal": 4528,
      "##ulated": 4529,
      "coats": 4530,
      "spar": 4531,
      "watched": 4532,
      "##dless": 4533,
      "guests": 4534,
      "females": 4535,
      "wrap": 4536,
      "gliding": 4537,
      "sausages": 4538,
      "##ivity": 4539,
      "humming": 4540,
      "aluminum": 4541,
      "avocad": 4542,
      "ipod": 4543,
      "##uss": 4544,
      "##au": 4545,
      "##kers": 4546,
      "##law": 4547,
      "##ically": 4548,
      "coles": 4549,
      "leave": 4550,
      "feathers": 4551,
      "driven": 4552,
      "preten": 4553,
      "theme": 4554,
      "dinning": 4555,
      "hudd": 4556,
      "belong": 4557,
      "pointed": 4558,
      "dolls": 4559,
      "followed": 4560,
      "strings": 4561,
      "halves": 4562,
      "pottery": 4563,
      "firetruck": 4564,
      "unripe": 4565,
      "employ": 4566,
      "parasailing": 4567,
      "plenty": 4568,
      "outstretched": 4569,
      "coleslaw": 4570,
      "bru": 4571,
      "oil": 4572,
      "page": 4573,
      "vic": 4574,
      "vandal": 4575,
      "##wh": 4576,
      "##inger": 4577,
      "shed": 4578,
      "carn": 4579,
      "##thing": 4580,
      "perches": 4581,
      "##olli": 4582,
      "##wear": 4583,
      "distant": 4584,
      "news": 4585,
      "directing": 4586,
      "flatbed": 4587,
      "adjust": 4588,
      "cycles": 4589,
      "provide": 4590,
      "cass": 4591,
      "sled": 4592,
      "ye": 4593,
      "##yond": 4594,
      "##park": 4595,
      "##asp": 4596,
      "##chet": 4597,
      "manne": 4598,
      "##ics": 4599,
      "bump": 4600,
      "beyond": 4601,
      "pipes": 4602,
      "grasses": 4603,
      "poking": 4604,
      "convention": 4605,
      "assemb": 4606,
      "swans": 4607,
      "diving": 4608,
      "contem": 4609,
      "memor": 4610,
      "cabbage": 4611,
      "setup": 4612,
      "##izing": 4613,
      "pillar": 4614,
      "##box": 4615,
      "cards": 4616,
      "mixing": 4617,
      "bricks": 4618,
      "peeling": 4619,
      "character": 4620,
      "folding": 4621,
      "##flowers": 4622,
      "dugout": 4623,
      "inflatable": 4624,
      "cit": 4625,
      "rol": 4626,
      "ult": 4627,
      "##ua": 4628,
      "##iner": 4629,
      "##ener": 4630,
      "##alks": 4631,
      "##oped": 4632,
      "##ilar": 4633,
      "##ions": 4634,
      "bedding": 4635,
      "skates": 4636,
      "roads": 4637,
      "asc": 4638,
      "aspar": 4639,
      "sprou": 4640,
      "stew": 4641,
      "sleek": 4642,
      "trip": 4643,
      "flowered": 4644,
      "holes": 4645,
      "similar": 4646,
      "saddle": 4647,
      "##plane": 4648,
      "stocked": 4649,
      "wandering": 4650,
      "sweatshirt": 4651,
      "members": 4652,
      "pilot": 4653,
      "mannequ": 4654,
      "bb": 4655,
      "cyclist": 4656,
      "dom": 4657,
      "dru": 4658,
      "overs": 4659,
      "pets": 4660,
      "vast": 4661,
      "zone": 4662,
      "##off": 4663,
      "##vily": 4664,
      "##alled": 4665,
      "##ury": 4666,
      "robe": 4667,
      "smooth": 4668,
      "backwards": 4669,
      "heels": 4670,
      "frisbe": 4671,
      "swan": 4672,
      "club": 4673,
      "socks": 4674,
      "hilly": 4675,
      "steering": 4676,
      "speaker": 4677,
      "consum": 4678,
      "crouches": 4679,
      "heavily": 4680,
      "cops": 4681,
      "embra": 4682,
      "comfortable": 4683,
      "cucumbers": 4684,
      "antelope": 4685,
      "quickly": 4686,
      "rabbit": 4687,
      "hom": 4688,
      "pel": 4689,
      "tug": 4690,
      "##bu": 4691,
      "##bee": 4692,
      "##ern": 4693,
      "state": 4694,
      "could": 4695,
      "sewing": 4696,
      "herbs": 4697,
      "span": 4698,
      "##berries": 4699,
      "cooler": 4700,
      "gazel": 4701,
      "descri": 4702,
      "measuring": 4703,
      "private": 4704,
      "plugged": 4705,
      "route": 4706,
      "bidet": 4707,
      "ever": 4708,
      "und": 4709,
      "##aw": 4710,
      "##ense": 4711,
      "mantle": 4712,
      "##achers": 4713,
      "flash": 4714,
      "nearly": 4715,
      "waterm": 4716,
      "##mbol": 4717,
      "raising": 4718,
      "##agus": 4719,
      "broad": 4720,
      "cord": 4721,
      "marsh": 4722,
      "ramps": 4723,
      "exit": 4724,
      "lands": 4725,
      "location": 4726,
      "accents": 4727,
      "symbol": 4728,
      "complet": 4729,
      "bites": 4730,
      "layered": 4731,
      "melted": 4732,
      "times": 4733,
      "anchored": 4734,
      "champag": 4735,
      "kiw": 4736,
      "situated": 4737,
      "vandalized": 4738,
      "asparagus": 4739,
      "##pan": 4740,
      "##pad": 4741,
      "##mat": 4742,
      "carved": 4743,
      "##tled": 4744,
      "leaps": 4745,
      "storefront": 4746,
      "squash": 4747,
      "carrier": 4748,
      "##post": 4749,
      "kneels": 4750,
      "chopping": 4751,
      "portable": 4752,
      "liquor": 4753,
      "numerals": 4754,
      "slab": 4755,
      "barefoot": 4756,
      "grizzly": 4757,
      "rolled": 4758,
      "dro": 4759,
      "esc": 4760,
      "nuzz": 4761,
      "##book": 4762,
      "share": 4763,
      "airline": 4764,
      "sex": 4765,
      "social": 4766,
      "broc": 4767,
      "unable": 4768,
      "corral": 4769,
      "current": 4770,
      "appet": 4771,
      "sculptures": 4772,
      "croiss": 4773,
      "finished": 4774,
      "knitted": 4775,
      "interactive": 4776,
      "demonstr": 4777,
      "sparse": 4778,
      "champagne": 4779,
      "cyclists": 4780,
      "pon": 4781,
      "rise": 4782,
      "tul": 4783,
      "tether": 4784,
      "won": 4785,
      "##ien": 4786,
      "##bird": 4787,
      "##ora": 4788,
      "##iced": 4789,
      "thats": 4790,
      "smelling": 4791,
      "bend": 4792,
      "lung": 4793,
      "midst": 4794,
      "travelers": 4795,
      "helps": 4796,
      "posters": 4797,
      "smiley": 4798,
      "styled": 4799,
      "discuss": 4800,
      "price": 4801,
      "washington": 4802,
      "mopeds": 4803,
      "threw": 4804,
      "casser": 4805,
      "bbq": 4806,
      "amb": 4807,
      "crown": 4808,
      "iphone": 4809,
      "jam": 4810,
      "sour": 4811,
      "##ude": 4812,
      "##hua": 4813,
      "##con": 4814,
      "those": 4815,
      "##lete": 4816,
      "whit": 4817,
      "areas": 4818,
      "ske": 4819,
      "shaded": 4820,
      "ital": 4821,
      "training": 4822,
      "legged": 4823,
      "grape": 4824,
      "plated": 4825,
      "mixer": 4826,
      "smartphone": 4827,
      "materials": 4828,
      "kayak": 4829,
      "creek": 4830,
      "dashboard": 4831,
      "information": 4832,
      "dad": 4833,
      "dorm": 4834,
      "oval": 4835,
      "pal": 4836,
      "rasp": 4837,
      "##band": 4838,
      "incoming": 4839,
      "##ening": 4840,
      "stating": 4841,
      "##oms": 4842,
      "##orary": 4843,
      "##iring": 4844,
      "##amese": 4845,
      "tending": 4846,
      "reve": 4847,
      "airfield": 4848,
      "coca": 4849,
      "cages": 4850,
      "wax": 4851,
      "soaked": 4852,
      "mex": 4853,
      "##anging": 4854,
      "polo": 4855,
      "meals": 4856,
      "strike": 4857,
      "shake": 4858,
      "motorbikes": 4859,
      "rams": 4860,
      "instruments": 4861,
      "##eled": 4862,
      "##ghetti": 4863,
      "spre": 4864,
      "biplane": 4865,
      "studi": 4866,
      "brand": 4867,
      "meatball": 4868,
      "flaming": 4869,
      "takeoff": 4870,
      "crumb": 4871,
      "pushed": 4872,
      "medical": 4873,
      "boun": 4874,
      "parasail": 4875,
      "buffal": 4876,
      "tucked": 4877,
      "bandan": 4878,
      "protective": 4879,
      "slowly": 4880,
      "college": 4881,
      "pirate": 4882,
      "surprised": 4883,
      "completely": 4884,
      "casserole": 4885,
      "studio": 4886,
      "filling": 4887,
      "hed": 4888,
      "mor": 4889,
      "##yl": 4890,
      "##vet": 4891,
      "##ester": 4892,
      "##owed": 4893,
      "basil": 4894,
      "blind": 4895,
      "rapid": 4896,
      "cords": 4897,
      "skatepark": 4898,
      "colorfully": 4899,
      "serious": 4900,
      "perf": 4901,
      "cheesecake": 4902,
      "mugs": 4903,
      "touches": 4904,
      "celebration": 4905,
      "labeled": 4906,
      "briefcase": 4907,
      "beginning": 4908,
      "emergen": 4909,
      "maneu": 4910,
      "saucer": 4911,
      "spaghetti": 4912,
      "huddled": 4913,
      "emergency": 4914,
      "noth": 4915,
      "oly": 4916,
      "sold": 4917,
      "##vd": 4918,
      "stare": 4919,
      "paralle": 4920,
      "caged": 4921,
      "conver": 4922,
      "taped": 4923,
      "spire": 4924,
      "soaring": 4925,
      "dresses": 4926,
      "canoes": 4927,
      "##ished": 4928,
      "squir": 4929,
      "##dded": 4930,
      "south": 4931,
      "veggie": 4932,
      "mustache": 4933,
      "dragon": 4934,
      "crochet": 4935,
      "combination": 4936,
      "stems": 4937,
      "waffles": 4938,
      "rodeo": 4939,
      "lonely": 4940,
      "watermel": 4941,
      "nothing": 4942,
      "olymp": 4943,
      "best": 4944,
      "ges": 4945,
      "hour": 4946,
      "miss": 4947,
      "yar": 4948,
      "##using": 4949,
      "inc": 4950,
      "instruction": 4951,
      "##ella": 4952,
      "upper": 4953,
      "hydrants": 4954,
      "##ipping": 4955,
      "perch": 4956,
      "landed": 4957,
      "accom": 4958,
      "napkins": 4959,
      "stretch": 4960,
      "angry": 4961,
      "tires": 4962,
      "athlete": 4963,
      "comfortably": 4964,
      "blueberries": 4965,
      "non": 4966,
      "ran": 4967,
      "rou": 4968,
      "##ex": 4969,
      "##ouf": 4970,
      "shre": 4971,
      "fields": 4972,
      "rele": 4973,
      "##sters": 4974,
      "camouf": 4975,
      "shaving": 4976,
      "crew": 4977,
      "singing": 4978,
      "directional": 4979,
      "opposing": 4980,
      "barrels": 4981,
      "presentation": 4982,
      "volleyball": 4983,
      "installed": 4984,
      "scratching": 4985,
      "summer": 4986,
      "queen": 4987,
      "parallel": 4988,
      "hun": 4989,
      "ome": 4990,
      "rand": 4991,
      "tusk": 4992,
      "vert": 4993,
      "##du": 4994,
      "oncoming": 4995,
      "##ased": 4996,
      "##igating": 4997,
      "mote": 4998,
      "limit": 4999,
      "camping": 5000,
      "nighttime": 5001,
      "clearly": 5002,
      "bleachers": 5003,
      "cabinetry": 5004,
      "machines": 5005,
      "##ocked": 5006,
      "featured": 5007,
      "chains": 5008,
      "draped": 5009,
      "printed": 5010,
      "characters": 5011,
      "canadian": 5012,
      "sauces": 5013,
      "brocolli": 5014,
      "tulips": 5015,
      "gesture": 5016,
      "yarn": 5017,
      "brow": 5018,
      "deb": 5019,
      "fin": 5020,
      "fill": 5021,
      "nine": 5022,
      "occup": 5023,
      "tanger": 5024,
      "yet": 5025,
      "##oise": 5026,
      "##can": 5027,
      "##aling": 5028,
      "twig": 5029,
      "skull": 5030,
      "sporting": 5031,
      "##angle": 5032,
      "mountainside": 5033,
      "darkened": 5034,
      "appar": 5035,
      "cram": 5036,
      "carpeted": 5037,
      "presents": 5038,
      "penguin": 5039,
      "buffalo": 5040,
      "cem": 5041,
      "give": 5042,
      "my": 5043,
      "##mely": 5044,
      "ther": 5045,
      "change": 5046,
      "wallet": 5047,
      "refer": 5048,
      "marking": 5049,
      "somebo": 5050,
      "cloudless": 5051,
      "states": 5052,
      "preparation": 5053,
      "entry": 5054,
      "ends": 5055,
      "artific": 5056,
      "quite": 5057,
      "makeup": 5058,
      "nav": 5059,
      "lifts": 5060,
      "shelving": 5061,
      "historic": 5062,
      "relaxes": 5063,
      "barbecue": 5064,
      "ultimate": 5065,
      "perfect": 5066,
      "cemet": 5067,
      "somebody": 5068,
      "aqu": 5069,
      "nut": 5070,
      "oct": 5071,
      "invest": 5072,
      "##eties": 5073,
      "bron": 5074,
      "varieties": 5075,
      "curly": 5076,
      "greeting": 5077,
      "picked": 5078,
      "policemen": 5079,
      "frames": 5080,
      "steamed": 5081,
      "department": 5082,
      "consists": 5083,
      "bookshelves": 5084,
      "musical": 5085,
      "gazing": 5086,
      "begins": 5087,
      "bundle": 5088,
      "recei": 5089,
      "regular": 5090,
      "deta": 5091,
      "extremely": 5092,
      "siamese": 5093,
      "damaged": 5094,
      "tethered": 5095,
      "hur": 5096,
      "honey": 5097,
      "nes": 5098,
      "sight": 5099,
      "tarp": 5100,
      "##ney": 5101,
      "##vil": 5102,
      "##itch": 5103,
      "##eling": 5104,
      "rod": 5105,
      "parents": 5106,
      "coin": 5107,
      "motorized": 5108,
      "slip": 5109,
      "moon": 5110,
      "know": 5111,
      "##ishes": 5112,
      "hund": 5113,
      "obama": 5114,
      "official": 5115,
      "burning": 5116,
      "choppy": 5117,
      "bulld": 5118,
      "everyone": 5119,
      "jockeys": 5120,
      "projector": 5121,
      "wrest": 5122,
      "season": 5123,
      "shredded": 5124,
      "artificial": 5125,
      "aim": 5126,
      "bins": 5127,
      "got": 5128,
      "icy": 5129,
      "lens": 5130,
      "mill": 5131,
      "ni": 5132,
      "telling": 5133,
      "##zing": 5134,
      "parent": 5135,
      "trainer": 5136,
      "cozy": 5137,
      "deserts": 5138,
      "lux": 5139,
      "##ipe": 5140,
      "##atory": 5141,
      "friz": 5142,
      "neckla": 5143,
      "wheeler": 5144,
      "taxis": 5145,
      "enjoys": 5146,
      "paddles": 5147,
      "everything": 5148,
      "camper": 5149,
      "arriving": 5150,
      "exposed": 5151,
      "tortilla": 5152,
      "carnival": 5153,
      "mexican": 5154,
      "random": 5155,
      "hook": 5156,
      "oak": 5157,
      "pant": 5158,
      "sanding": 5159,
      "tick": 5160,
      "strewn": 5161,
      "somewh": 5162,
      "sep": 5163,
      "horn": 5164,
      "skiiers": 5165,
      "sco": 5166,
      "sword": 5167,
      "flowing": 5168,
      "curvy": 5169,
      "polit": 5170,
      "##rict": 5171,
      "extends": 5172,
      "glides": 5173,
      "countertops": 5174,
      "stirring": 5175,
      "follows": 5176,
      "easy": 5177,
      "butterfly": 5178,
      "sprouts": 5179,
      "everg": 5180,
      "ambul": 5181,
      "somewhat": 5182,
      "filed": 5183,
      "gad": 5184,
      "kicks": 5185,
      "rese": 5186,
      "buckets": 5187,
      "peers": 5188,
      "peac": 5189,
      "busines": 5190,
      "gradu": 5191,
      "trek": 5192,
      "arched": 5193,
      "microwaves": 5194,
      "blend": 5195,
      "doesn": 5196,
      "support": 5197,
      "president": 5198,
      "awning": 5199,
      "cucumber": 5200,
      "crashing": 5201,
      "competitive": 5202,
      "vacant": 5203,
      "victor": 5204,
      "italian": 5205,
      "morning": 5206,
      "watermelon": 5207,
      "accompan": 5208,
      "omelet": 5209,
      "sepia": 5210,
      "businesses": 5211,
      "ic": 5212,
      "pale": 5213,
      "tide": 5214,
      "##vation": 5215,
      "##ki": 5216,
      "##zard": 5217,
      "##itan": 5218,
      "##chan": 5219,
      "airways": 5220,
      "##shop": 5221,
      "graph": 5222,
      "##estri": 5223,
      "##othered": 5224,
      "jumped": 5225,
      "metrop": 5226,
      "decorating": 5227,
      "hello": 5228,
      "exiting": 5229,
      "accident": 5230,
      "vests": 5231,
      "balanced": 5232,
      "olive": 5233,
      "student": 5234,
      "sided": 5235,
      "architecture": 5236,
      "cameras": 5237,
      "rounding": 5238,
      "debris": 5239,
      "referee": 5240,
      "evergreen": 5241,
      "lion": 5242,
      "less": 5243,
      "pac": 5244,
      "rather": 5245,
      "yach": 5246,
      "##nam": 5247,
      "##cot": 5248,
      "##ered": 5249,
      "ton": 5250,
      "today": 5251,
      "strong": 5252,
      "limes": 5253,
      "caf": 5254,
      "spices": 5255,
      "mechan": 5256,
      "striking": 5257,
      "submer": 5258,
      "carton": 5259,
      "equestri": 5260,
      "early": 5261,
      "earth": 5262,
      "turqu": 5263,
      "overlooks": 5264,
      "propellers": 5265,
      "medic": 5266,
      "sniffs": 5267,
      "safari": 5268,
      "dotted": 5269,
      "everywhere": 5270,
      "historical": 5271,
      "nursing": 5272,
      "attention": 5273,
      "wonder": 5274,
      "nestled": 5275,
      "gadget": 5276,
      "kiss": 5277,
      "rising": 5278,
      "wig": 5279,
      "web": 5280,
      "ann": 5281,
      "stones": 5282,
      "##ory": 5283,
      "beat": 5284,
      "plaque": 5285,
      "smothered": 5286,
      "batters": 5287,
      "flan": 5288,
      "##aint": 5289,
      "##stal": 5290,
      "backhand": 5291,
      "lip": 5292,
      "windy": 5293,
      "contra": 5294,
      "paste": 5295,
      "racer": 5296,
      "liner": 5297,
      "##berry": 5298,
      "belly": 5299,
      "autumn": 5300,
      "removed": 5301,
      "warming": 5302,
      "flavored": 5303,
      "##eteria": 5304,
      "rotten": 5305,
      "hummingbird": 5306,
      "avocado": 5307,
      "kiwi": 5308,
      "resemb": 5309,
      "metropol": 5310,
      "cafeteria": 5311,
      "turquoise": 5312,
      "cry": 5313,
      "fu": 5314,
      "gated": 5315,
      "sells": 5316,
      "woo": 5317,
      "west": 5318,
      "##tes": 5319,
      "##hich": 5320,
      "stars": 5321,
      "##lapid": 5322,
      "shoo": 5323,
      "shady": 5324,
      "flush": 5325,
      "##inder": 5326,
      "cong": 5327,
      "grabs": 5328,
      "underwear": 5329,
      "kiteboarding": 5330,
      "##ified": 5331,
      "pregn": 5332,
      "lovely": 5333,
      "noses": 5334,
      "##lights": 5335,
      "##liners": 5336,
      "kittens": 5337,
      "pours": 5338,
      "skyscrapers": 5339,
      "paneled": 5340,
      "homes": 5341,
      "escal": 5342,
      "sexy": 5343,
      "raspberries": 5344,
      "cemetery": 5345,
      "submerged": 5346,
      "##lapidated": 5347,
      "lat": 5348,
      "late": 5349,
      "##hus": 5350,
      "##pie": 5351,
      "##dant": 5352,
      "##wise": 5353,
      "then": 5354,
      "skills": 5355,
      "##ament": 5356,
      "alert": 5357,
      "sandwhich": 5358,
      "meet": 5359,
      "mirrored": 5360,
      "marker": 5361,
      "particip": 5362,
      "district": 5363,
      "juic": 5364,
      "lounges": 5365,
      "depicts": 5366,
      "slaw": 5367,
      "garnished": 5368,
      "mesh": 5369,
      "cuddling": 5370,
      "bumper": 5371,
      "craw": 5372,
      "dance": 5373,
      "faded": 5374,
      "lanes": 5375,
      "tar": 5376,
      "##oid": 5377,
      "##gly": 5378,
      "##dit": 5379,
      "##ows": 5380,
      "buying": 5381,
      "##pled": 5382,
      "##rispy": 5383,
      "##unching": 5384,
      "trey": 5385,
      "passed": 5386,
      "crowds": 5387,
      "bagels": 5388,
      "ridden": 5389,
      "bricked": 5390,
      "orch": 5391,
      "facility": 5392,
      "crafts": 5393,
      "clad": 5394,
      "compete": 5395,
      "speeds": 5396,
      "drain": 5397,
      "shadows": 5398,
      "gentlemen": 5399,
      "blows": 5400,
      "expression": 5401,
      "gazelle": 5402,
      "##estern": 5403,
      "ambulance": 5404,
      "pregnant": 5405,
      "est": 5406,
      "found": 5407,
      "rises": 5408,
      "##od": 5409,
      "##cut": 5410,
      "##cul": 5411,
      "##lets": 5412,
      "##rest": 5413,
      "##reds": 5414,
      "##rofo": 5415,
      "stalk": 5416,
      "##ister": 5417,
      "##ote": 5418,
      "buy": 5419,
      "trailing": 5420,
      "##rus": 5421,
      "your": 5422,
      "##station": 5423,
      "prom": 5424,
      "linens": 5425,
      "resid": 5426,
      "wireless": 5427,
      "milking": 5428,
      "wrapping": 5429,
      "burnt": 5430,
      "pupp": 5431,
      "indicates": 5432,
      "radi": 5433,
      "digging": 5434,
      "rugs": 5435,
      "splashing": 5436,
      "waffle": 5437,
      "wok": 5438,
      "snuggling": 5439,
      "techn": 5440,
      "torn": 5441,
      "belongings": 5442,
      "embracing": 5443,
      "appetiz": 5444,
      "ranch": 5445,
      "hundreds": 5446,
      "metropolitan": 5447,
      "dair": 5448,
      "gone": 5449,
      "leng": 5450,
      "mama": 5451,
      "milling": 5452,
      "wel": 5453,
      "wines": 5454,
      "##tra": 5455,
      "##dated": 5456,
      "##food": 5457,
      "##alog": 5458,
      "chalk": 5459,
      "##amed": 5460,
      "picks": 5461,
      "carving": 5462,
      "busted": 5463,
      "intric": 5464,
      "dilapidated": 5465,
      "##apers": 5466,
      "knick": 5467,
      "paperwork": 5468,
      "boot": 5469,
      "##rons": 5470,
      "lapse": 5471,
      "styl": 5472,
      "eyed": 5473,
      "swims": 5474,
      "##ensive": 5475,
      "retro": 5476,
      "retail": 5477,
      "##bbles": 5478,
      "pushes": 5479,
      "wetsuits": 5480,
      "jew": 5481,
      "condu": 5482,
      "auto": 5483,
      "dais": 5484,
      "magazines": 5485,
      "canada": 5486,
      "smoothie": 5487,
      "camouflage": 5488,
      "dairy": 5489,
      "hid": 5490,
      "ropes": 5491,
      "unt": 5492,
      "vending": 5493,
      "##oy": 5494,
      "##glasses": 5495,
      "##uses": 5496,
      "##tage": 5497,
      "##fruit": 5498,
      "inv": 5499,
      "##ready": 5500,
      "##rets": 5501,
      "beers": 5502,
      "##urity": 5503,
      "guiding": 5504,
      "##arian": 5505,
      "knocked": 5506,
      "mouths": 5507,
      "except": 5508,
      "commun": 5509,
      "patrons": 5510,
      "function": 5511,
      "cracked": 5512,
      "security": 5513,
      "lifted": 5514,
      "shelter": 5515,
      "skyscraper": 5516,
      "athletic": 5517,
      "grapefruit": 5518,
      "medicine": 5519,
      "##rofoam": 5520,
      "length": 5521,
      "ba": 5522,
      "ginger": 5523,
      "gener": 5524,
      "mc": 5525,
      "tired": 5526,
      "##uting": 5527,
      "##lings": 5528,
      "##erc": 5529,
      "##ilight": 5530,
      "twilight": 5531,
      "tabletop": 5532,
      "cherries": 5533,
      "rip": 5534,
      "buss": 5535,
      "rooms": 5536,
      "seed": 5537,
      "seeds": 5538,
      "livest": 5539,
      "already": 5540,
      "##rought": 5541,
      "raises": 5542,
      "daylight": 5543,
      "moss": 5544,
      "sunsh": 5545,
      "sunflowers": 5546,
      "remains": 5547,
      "incline": 5548,
      "partial": 5549,
      "styrofoam": 5550,
      "holders": 5551,
      "##efully": 5552,
      "washroom": 5553,
      "condition": 5554,
      "blocked": 5555,
      "deliver": 5556,
      "transporting": 5557,
      "label": 5558,
      "processor": 5559,
      "oddly": 5560,
      "vendors": 5561,
      "pumpkins": 5562,
      "examining": 5563,
      "attending": 5564,
      "amidst": 5565,
      "inspecting": 5566,
      "lettering": 5567,
      "admiring": 5568,
      "visitors": 5569,
      "pretending": 5570,
      "squirrel": 5571,
      "bronze": 5572,
      "frizbee": 5573,
      "crystal": 5574,
      "escalator": 5575,
      "livestock": 5576,
      "cin": 5577,
      "dol": 5578,
      "lite": 5579,
      "tip": 5580,
      "var": 5581,
      "##gu": 5582,
      "##come": 5583,
      "##fu": 5584,
      "##ilies": 5585,
      "##idger": 5586,
      "plow": 5587,
      "chat": 5588,
      "docks": 5589,
      "grouping": 5590,
      "backed": 5591,
      "cact": 5592,
      "sandals": 5593,
      "handed": 5594,
      "teal": 5595,
      "temp": 5596,
      "boxing": 5597,
      "knacks": 5598,
      "decorate": 5599,
      "barely": 5600,
      "caboose": 5601,
      "bottled": 5602,
      "pita": 5603,
      "deckered": 5604,
      "purch": 5605,
      "pillars": 5606,
      "exotic": 5607,
      "triple": 5608,
      "squares": 5609,
      "approach": 5610,
      "seafood": 5611,
      "bells": 5612,
      "job": 5613,
      "archway": 5614,
      "arrows": 5615,
      "bundled": 5616,
      "goose": 5617,
      "destination": 5618,
      "describe": 5619,
      "tangerines": 5620,
      "octop": 5621,
      "necklace": 5622,
      "equestrian": 5623,
      "cd": 5624,
      "dome": 5625,
      "gates": 5626,
      "sam": 5627,
      "tofu": 5628,
      "stored": 5629,
      "shell": 5630,
      "##anted": 5631,
      "##mbled": 5632,
      "otherwise": 5633,
      "grain": 5634,
      "spir": 5635,
      "diag": 5636,
      "platters": 5637,
      "barb": 5638,
      "walked": 5639,
      "televisions": 5640,
      "panor": 5641,
      "typ": 5642,
      "hairy": 5643,
      "hovering": 5644,
      "patrol": 5645,
      "enthus": 5646,
      "duff": 5647,
      "formally": 5648,
      "napping": 5649,
      "mascot": 5650,
      "returns": 5651,
      "remod": 5652,
      "stoplights": 5653,
      "roasted": 5654,
      "reclining": 5655,
      "robot": 5656,
      "captured": 5657,
      "hawk": 5658,
      "tilted": 5659,
      "citrus": 5660,
      "olympic": 5661,
      "ais": 5662,
      "cane": 5663,
      "gown": 5664,
      "rv": 5665,
      "rig": 5666,
      "sound": 5667,
      "##kn": 5668,
      "##bread": 5669,
      "neut": 5670,
      "chi": 5671,
      "frog": 5672,
      "grinds": 5673,
      "##ycling": 5674,
      "overg": 5675,
      "alp": 5676,
      "littered": 5677,
      "contest": 5678,
      "##urned": 5679,
      "##pective": 5680,
      "barric": 5681,
      "hovers": 5682,
      "trashcan": 5683,
      "claw": 5684,
      "starbu": 5685,
      "spring": 5686,
      "calcul": 5687,
      "sectional": 5688,
      "cerem": 5689,
      "##strip": 5690,
      "recre": 5691,
      "record": 5692,
      "divided": 5693,
      "pencils": 5694,
      "adjusts": 5695,
      "mannequin": 5696,
      "accompanied": 5697,
      "##namon": 5698,
      "radiator": 5699,
      "cinnamon": 5700,
      "typical": 5701,
      "neutral": 5702,
      "fist": 5703,
      "jack": 5704,
      "pc": 5705,
      "wou": 5706,
      "##gate": 5707,
      "##porary": 5708,
      "##iently": 5709,
      "##itude": 5710,
      "anc": 5711,
      "##res": 5712,
      "##reme": 5713,
      "##enting": 5714,
      "##omb": 5715,
      "##rous": 5716,
      "##ebe": 5717,
      "flips": 5718,
      "basic": 5719,
      "kits": 5720,
      "sear": 5721,
      "heater": 5722,
      "spark": 5723,
      "clip": 5724,
      "wiping": 5725,
      "shepher": 5726,
      "packages": 5727,
      "appearing": 5728,
      "burrit": 5729,
      "calves": 5730,
      "hammer": 5731,
      "advertisements": 5732,
      "taxiing": 5733,
      "owners": 5734,
      "goalie": 5735,
      "contemporary": 5736,
      "ascending": 5737,
      "bulldog": 5738,
      "puppies": 5739,
      "dalm": 5740,
      "jug": 5741,
      "native": 5742,
      "vent": 5743,
      "##lent": 5744,
      "ofa": 5745,
      "analog": 5746,
      "##lable": 5747,
      "##raut": 5748,
      "whis": 5749,
      "##olog": 5750,
      "beca": 5751,
      "laund": 5752,
      "sund": 5753,
      "##ctors": 5754,
      "beached": 5755,
      "height": 5756,
      "litter": 5757,
      "##orth": 5758,
      "biking": 5759,
      "##ormous": 5760,
      "enormous": 5761,
      "monster": 5762,
      "amuse": 5763,
      "hazy": 5764,
      "seem": 5765,
      "stairway": 5766,
      "extending": 5767,
      "washed": 5768,
      "reflective": 5769,
      "reflects": 5770,
      "hooded": 5771,
      "tanker": 5772,
      "dots": 5773,
      "pumpkin": 5774,
      "examines": 5775,
      "scrub": 5776,
      "unders": 5777,
      "peacock": 5778,
      "hidden": 5779,
      "##idgerator": 5780,
      "aisle": 5781,
      "starbucks": 5782,
      "ceremony": 5783,
      "would": 5784,
      "ancient": 5785,
      "because": 5786,
      "dang": 5787,
      "eff": 5788,
      "fine": 5789,
      "gn": 5790,
      "named": 5791,
      "ses": 5792,
      "vi": 5793,
      "##sk": 5794,
      "##turned": 5795,
      "##atic": 5796,
      "waling": 5797,
      "airstrip": 5798,
      "waterfront": 5799,
      "surfboarding": 5800,
      "cole": 5801,
      "live": 5802,
      "cityscape": 5803,
      "taco": 5804,
      "spars": 5805,
      "unp": 5806,
      "markers": 5807,
      "scissor": 5808,
      "scenery": 5809,
      "candies": 5810,
      "##dible": 5811,
      "lamppost": 5812,
      "packaged": 5813,
      "businessman": 5814,
      "handleb": 5815,
      "radishes": 5816,
      "conversing": 5817,
      "avai": 5818,
      "presented": 5819,
      "recliner": 5820,
      "creepy": 5821,
      "galloping": 5822,
      "renovated": 5823,
      "troph": 5824,
      "year": 5825,
      "hedge": 5826,
      "cramped": 5827,
      "enthusi": 5828,
      "amusement": 5829,
      "danger": 5830,
      "dvd": 5831,
      "gor": 5832,
      "hooks": 5833,
      "might": 5834,
      "master": 5835,
      "vane": 5836,
      "vine": 5837,
      "wrist": 5838,
      "##dled": 5839,
      "##cess": 5840,
      "##lor": 5841,
      "##anse": 5842,
      "thread": 5843,
      "##arella": 5844,
      "stay": 5845,
      "stere": 5846,
      "##ided": 5847,
      "pear": 5848,
      "roy": 5849,
      "basem": 5850,
      "licks": 5851,
      "slop": 5852,
      "windm": 5853,
      "##ago": 5854,
      "courts": 5855,
      "add": 5856,
      "##icking": 5857,
      "raining": 5858,
      "exerc": 5859,
      "shaved": 5860,
      "vanilla": 5861,
      "foal": 5862,
      "climbs": 5863,
      "removing": 5864,
      "spinning": 5865,
      "readies": 5866,
      "instrument": 5867,
      "barriers": 5868,
      "recording": 5869,
      "biscuits": 5870,
      "futon": 5871,
      "flamingos": 5872,
      "bouncing": 5873,
      "instructions": 5874,
      "conductor": 5875,
      "octopus": 5876,
      "shepherd": 5877,
      "sesame": 5878,
      "sparsely": 5879,
      "available": 5880,
      "mur": 5881,
      "trot": 5882,
      "waste": 5883,
      "western": 5884,
      "zuc": 5885,
      "##pit": 5886,
      "##bably": 5887,
      "##inery": 5888,
      "##ara": 5889,
      "inj": 5890,
      "tourn": 5891,
      "toned": 5892,
      "##oween": 5893,
      "##ettes": 5894,
      "##cher": 5895,
      "##isher": 5896,
      "atv": 5897,
      "bug": 5898,
      "peach": 5899,
      "chan": 5900,
      "downward": 5901,
      "sidecar": 5902,
      "##zzarella": 5903,
      "raquet": 5904,
      "colum": 5905,
      "##ested": 5906,
      "views": 5907,
      "standard": 5908,
      "mozzarella": 5909,
      "marching": 5910,
      "strips": 5911,
      "workstation": 5912,
      "settings": 5913,
      "subst": 5914,
      "wildebe": 5915,
      "wired": 5916,
      "concert": 5917,
      "##ixed": 5918,
      "burner": 5919,
      "burners": 5920,
      "peeks": 5921,
      "positions": 5922,
      "dragging": 5923,
      "noodle": 5924,
      "halloween": 5925,
      "hamm": 5926,
      "practices": 5927,
      "charging": 5928,
      "complex": 5929,
      "trolly": 5930,
      "expanse": 5931,
      "fedora": 5932,
      "stormy": 5933,
      "ornaments": 5934,
      "destro": 5935,
      "beanie": 5936,
      "captivity": 5937,
      "architect": 5938,
      "handicapped": 5939,
      "sleigh": 5940,
      "dropping": 5941,
      "employees": 5942,
      "##piece": 5943,
      "sunshine": 5944,
      "alpine": 5945,
      "stereo": 5946,
      "zucch": 5947,
      "tournament": 5948,
      "came": 5949,
      "fet": 5950,
      "gull": 5951,
      "gang": 5952,
      "gift": 5953,
      "mp": 5954,
      "mice": 5955,
      "ven": 5956,
      "vess": 5957,
      "vans": 5958,
      "yummy": 5959,
      "##gin": 5960,
      "##walks": 5961,
      "##fting": 5962,
      "##rots": 5963,
      "##ots": 5964,
      "##roud": 5965,
      "shine": 5966,
      "plung": 5967,
      "personnel": 5968,
      "upwards": 5969,
      "snowsuit": 5970,
      "##eech": 5971,
      "reins": 5972,
      "poor": 5973,
      "handled": 5974,
      "florets": 5975,
      "flowery": 5976,
      "##ques": 5977,
      "bib": 5978,
      "vegetarian": 5979,
      "chews": 5980,
      "broth": 5981,
      "guide": 5982,
      "loft": 5983,
      "refridgerator": 5984,
      "barber": 5985,
      "plantains": 5986,
      "ways": 5987,
      "salt": 5988,
      "salon": 5989,
      "salmon": 5990,
      "huddle": 5991,
      "patri": 5992,
      "stylish": 5993,
      "machinery": 5994,
      "terri": 5995,
      "drapes": 5996,
      "##coat": 5997,
      "grooming": 5998,
      "solar": 5999,
      "casual": 6000,
      "delivering": 6001,
      "sections": 6002,
      "grove": 6003,
      "focused": 6004,
      "film": 6005,
      "finishing": 6006,
      "moment": 6007,
      "ornament": 6008,
      "import": 6009,
      "biscuit": 6010,
      "ponies": 6011,
      "bandana": 6012,
      "hunched": 6013,
      "residence": 6014,
      "daisies": 6015,
      "overgrown": 6016,
      "laundry": 6017,
      "baseman": 6018,
      "zucchini": 6019,
      "dum": 6020,
      "et": 6021,
      "rush": 6022,
      "##tower": 6023,
      "##hold": 6024,
      "##nch": 6025,
      "think": 6026,
      "##omy": 6027,
      "##ica": 6028,
      "peak": 6029,
      "peaches": 6030,
      "plum": 6031,
      "parrots": 6032,
      "launch": 6033,
      "##antic": 6034,
      "##eeping": 6035,
      "##ples": 6036,
      "cocon": 6037,
      "congre": 6038,
      "waist": 6039,
      "underground": 6040,
      "speech": 6041,
      "clut": 6042,
      "fencing": 6043,
      "mosa": 6044,
      "probably": 6045,
      "forehead": 6046,
      "household": 6047,
      "##gram": 6048,
      "breads": 6049,
      "hug": 6050,
      "engaging": 6051,
      "marketplace": 6052,
      "garb": 6053,
      "wheelie": 6054,
      "##structed": 6055,
      "teamm": 6056,
      "wedge": 6057,
      "bloss": 6058,
      "turtle": 6059,
      "numeral": 6060,
      "hamburgers": 6061,
      "weathered": 6062,
      "dense": 6063,
      "populated": 6064,
      "descending": 6065,
      "languages": 6066,
      "reception": 6067,
      "spaces": 6068,
      "compartments": 6069,
      "pressing": 6070,
      "oxen": 6071,
      "athletes": 6072,
      "fleet": 6073,
      "currently": 6074,
      "markings": 6075,
      "slippers": 6076,
      "ticket": 6077,
      "gadgets": 6078,
      "crawling": 6079,
      "cactus": 6080,
      "husk": 6081,
      "idle": 6082,
      "krispy": 6083,
      "nature": 6084,
      "sell": 6085,
      "vir": 6086,
      "##tate": 6087,
      "##ties": 6088,
      "##ders": 6089,
      "##ience": 6090,
      "##fight": 6091,
      "##erior": 6092,
      "theater": 6093,
      "##ram": 6094,
      "bunt": 6095,
      "shells": 6096,
      "##seat": 6097,
      "lav": 6098,
      "carefully": 6099,
      "gras": 6100,
      "caps": 6101,
      "##aneous": 6102,
      "tails": 6103,
      "##estic": 6104,
      "goble": 6105,
      "stuffing": 6106,
      "sunlit": 6107,
      "camel": 6108,
      "kno": 6109,
      "##used": 6110,
      "interstate": 6111,
      "amaz": 6112,
      "haircut": 6113,
      "hoop": 6114,
      "patiently": 6115,
      "trails": 6116,
      "beautifully": 6117,
      "carried": 6118,
      "concent": 6119,
      "crab": 6120,
      "warns": 6121,
      "needle": 6122,
      "activ": 6123,
      "goof": 6124,
      "affixed": 6125,
      "poured": 6126,
      "memorial": 6127,
      "trekking": 6128,
      "mcd": 6129,
      "royal": 6130,
      "important": 6131,
      "mosaic": 6132,
      "berry": 6133,
      "fran": 6134,
      "las": 6135,
      "nast": 6136,
      "ugly": 6137,
      "ver": 6138,
      "zo": 6139,
      "##hift": 6140,
      "##erk": 6141,
      "##alls": 6142,
      "##rail": 6143,
      "##eline": 6144,
      "bud": 6145,
      "buried": 6146,
      "foraging": 6147,
      "clocktower": 6148,
      "slanted": 6149,
      "##lders": 6150,
      "dem": 6151,
      "veg": 6152,
      "teap": 6153,
      "banquet": 6154,
      "diaper": 6155,
      "showroom": 6156,
      "herded": 6157,
      "server": 6158,
      "linen": 6159,
      "amtra": 6160,
      "flowering": 6161,
      "hock": 6162,
      "glow": 6163,
      "makeshift": 6164,
      "utensil": 6165,
      "charger": 6166,
      "tossed": 6167,
      "filthy": 6168,
      "levels": 6169,
      "awaits": 6170,
      "cables": 6171,
      "##market": 6172,
      "pencil": 6173,
      "consumption": 6174,
      "croissant": 6175,
      "vertical": 6176,
      "political": 6177,
      "wooly": 6178,
      "stylized": 6179,
      "calculator": 6180,
      "concentr": 6181,
      "mcdonal": 6182,
      "nasty": 6183,
      "aer": 6184,
      "kreme": 6185,
      "proud": 6186,
      "ti": 6187,
      "##lane": 6188,
      "##ids": 6189,
      "twent": 6190,
      "peaking": 6191,
      "roam": 6192,
      "chee": 6193,
      "snowing": 6194,
      "##ston": 6195,
      "lips": 6196,
      "pokes": 6197,
      "elev": 6198,
      "leap": 6199,
      "teens": 6200,
      "##agie": 6201,
      "##iche": 6202,
      "fences": 6203,
      "headlights": 6204,
      "barge": 6205,
      "sleepy": 6206,
      "cloths": 6207,
      "spec": 6208,
      "spewing": 6209,
      "hoagie": 6210,
      "packing": 6211,
      "quart": 6212,
      "blooming": 6213,
      "##bbling": 6214,
      "proper": 6215,
      "median": 6216,
      "croo": 6217,
      "depicted": 6218,
      "customer": 6219,
      "cushions": 6220,
      "trimmed": 6221,
      "stockings": 6222,
      "peacefully": 6223,
      "ornamental": 6224,
      "supermarket": 6225,
      "extreme": 6226,
      "bridle": 6227,
      "rhino": 6228,
      "pelican": 6229,
      "broadway": 6230,
      "crocheted": 6231,
      "substance": 6232,
      "patriotic": 6233,
      "amtrak": 6234,
      "ast": 6235,
      "fou": 6236,
      "fell": 6237,
      "goth": 6238,
      "lant": 6239,
      "rd": 6240,
      "wrong": 6241,
      "##son": 6242,
      "##tail": 6243,
      "##ah": 6244,
      "##inary": 6245,
      "##inging": 6246,
      "##eries": 6247,
      "tone": 6248,
      "##ablish": 6249,
      "chic": 6250,
      "snap": 6251,
      "blazer": 6252,
      "##ented": 6253,
      "hash": 6254,
      "coaster": 6255,
      "asia": 6256,
      "goers": 6257,
      "safe": 6258,
      "added": 6259,
      "enough": 6260,
      "proce": 6261,
      "highchair": 6262,
      "housing": 6263,
      "cann": 6264,
      "clothed": 6265,
      "england": 6266,
      "obsc": 6267,
      "squats": 6268,
      "helmeted": 6269,
      "rooft": 6270,
      "intern": 6271,
      "access": 6272,
      "depar": 6273,
      "glider": 6274,
      "grilling": 6275,
      "expired": 6276,
      "combing": 6277,
      "product": 6278,
      "instead": 6279,
      "captive": 6280,
      "snuggled": 6281,
      "ferris": 6282,
      "rhin": 6283,
      "retriever": 6284,
      "yacht": 6285,
      "congrat": 6286,
      "establish": 6287,
      "channel": 6288,
      "destroyed": 6289,
      "hockey": 6290,
      "aboard": 6291,
      "bone": 6292,
      "cris": 6293,
      "dre": 6294,
      "rally": 6295,
      "##ther": 6296,
      "staff": 6297,
      "##icans": 6298,
      "bubble": 6299,
      "shack": 6300,
      "chill": 6301,
      "##ures": 6302,
      "sidewalks": 6303,
      "herds": 6304,
      "motorboat": 6305,
      "overturned": 6306,
      "boarded": 6307,
      "lightly": 6308,
      "firefight": 6309,
      "##ifts": 6310,
      "drizz": 6311,
      "headband": 6312,
      "brass": 6313,
      "halfway": 6314,
      "##ize": 6315,
      "speaks": 6316,
      "central": 6317,
      "lefto": 6318,
      "seeing": 6319,
      "packs": 6320,
      "laden": 6321,
      "exterior": 6322,
      "structures": 6323,
      "studying": 6324,
      "replic": 6325,
      "fedex": 6326,
      "unused": 6327,
      "minim": 6328,
      "stoves": 6329,
      "flavors": 6330,
      "blueberry": 6331,
      "horizont": 6332,
      "landsca": 6333,
      "nuzzling": 6334,
      "rapids": 6335,
      "intricate": 6336,
      "jewel": 6337,
      "recreational": 6338,
      "columns": 6339,
      "architectural": 6340,
      "husky": 6341,
      "aust": 6342,
      "cant": 6343,
      "era": 6344,
      "oat": 6345,
      "rat": 6346,
      "rink": 6347,
      "wrought": 6348,
      "##itting": 6349,
      "thom": 6350,
      "inn": 6351,
      "##ckled": 6352,
      "##irl": 6353,
      "##isted": 6354,
      "peps": 6355,
      "##ebur": 6356,
      "cho": 6357,
      "changing": 6358,
      "blades": 6359,
      "signing": 6360,
      "react": 6361,
      "coated": 6362,
      "##rise": 6363,
      "browns": 6364,
      "swamp": 6365,
      "swift": 6366,
      "fireman": 6367,
      "contin": 6368,
      "contact": 6369,
      "viewer": 6370,
      "taller": 6371,
      "##arium": 6372,
      "##tenance": 6373,
      "attack": 6374,
      "canv": 6375,
      "##graph": 6376,
      "salsa": 6377,
      "worked": 6378,
      "layed": 6379,
      "styles": 6380,
      "dude": 6381,
      "claus": 6382,
      "leashes": 6383,
      "models": 6384,
      "misc": 6385,
      "sorts": 6386,
      "mitts": 6387,
      "eyeglasses": 6388,
      "musc": 6389,
      "macbook": 6390,
      "cranes": 6391,
      "maintain": 6392,
      "maintenance": 6393,
      "groceries": 6394,
      "instructor": 6395,
      "took": 6396,
      "wander": 6397,
      "tattoos": 6398,
      "woven": 6399,
      "lunging": 6400,
      "contraption": 6401,
      "shooting": 6402,
      "underside": 6403,
      "virgin": 6404,
      "activities": 6405,
      "teapot": 6406,
      "thomas": 6407,
      "pepsi": 6408,
      "diced": 6409,
      "hides": 6410,
      "mad": 6411,
      "nook": 6412,
      "pood": 6413,
      "##occup": 6414,
      "##port": 6415,
      "##cases": 6416,
      "##mers": 6417,
      "##ians": 6418,
      "##wor": 6419,
      "##back": 6420,
      "##atian": 6421,
      "stages": 6422,
      "##elve": 6423,
      "##ables": 6424,
      "##amel": 6425,
      "ford": 6426,
      "cave": 6427,
      "##umps": 6428,
      "grave": 6429,
      "swiss": 6430,
      "diffic": 6431,
      "preform": 6432,
      "##dock": 6433,
      "animated": 6434,
      "loves": 6435,
      "controlled": 6436,
      "marks": 6437,
      "sleeve": 6438,
      "novel": 6439,
      "docking": 6440,
      "bushel": 6441,
      "pauses": 6442,
      "famous": 6443,
      "##born": 6444,
      "gloomy": 6445,
      "quaint": 6446,
      "groomed": 6447,
      "tosses": 6448,
      "newspapers": 6449,
      "cheeses": 6450,
      "plank": 6451,
      "receive": 6452,
      "curiously": 6453,
      "hearts": 6454,
      "affection": 6455,
      "assembly": 6456,
      "##huahua": 6457,
      "pantry": 6458,
      "welcome": 6459,
      "chihuahua": 6460,
      "burrito": 6461,
      "dalmatian": 6462,
      "murky": 6463,
      "congratul": 6464,
      "##occupied": 6465,
      "difficult": 6466,
      "certain": 6467,
      "root": 6468,
      "sams": 6469,
      "tell": 6470,
      "wil": 6471,
      "yield": 6472,
      "##orous": 6473,
      "##tel": 6474,
      "##keb": 6475,
      "##fth": 6476,
      "##flower": 6477,
      "##inating": 6478,
      "tot": 6479,
      "tol": 6480,
      "stalks": 6481,
      "wheat": 6482,
      "buds": 6483,
      "boiled": 6484,
      "backseat": 6485,
      "toilette": 6486,
      "wavy": 6487,
      "frisby": 6488,
      "scre": 6489,
      "##orted": 6490,
      "##asts": 6491,
      "##ggling": 6492,
      "cly": 6493,
      "able": 6494,
      "kiteboard": 6495,
      "##iforn": 6496,
      "unoccupied": 6497,
      "proj": 6498,
      "rowboat": 6499,
      "rescue": 6500,
      "greet": 6501,
      "nok": 6502,
      "salads": 6503,
      "beauty": 6504,
      "trailers": 6505,
      "layers": 6506,
      "pretz": 6507,
      "##ension": 6508,
      "modified": 6509,
      "strap": 6510,
      "boulders": 6511,
      "streamers": 6512,
      "californ": 6513,
      "casting": 6514,
      "mason": 6515,
      "lifegu": 6516,
      "surroundings": 6517,
      "observe": 6518,
      "cheesebur": 6519,
      "fairly": 6520,
      "fryer": 6521,
      "paneling": 6522,
      "sauerk": 6523,
      "scrambled": 6524,
      "spreading": 6525,
      "meatballs": 6526,
      "maneuver": 6527,
      "aquarium": 6528,
      "appetizers": 6529,
      "handlebars": 6530,
      "hammock": 6531,
      "elevator": 6532,
      "gothic": 6533,
      "replica": 6534,
      "california": 6535,
      "lifeguard": 6536,
      "find": 6537,
      "gathers": 6538,
      "gau": 6539,
      "national": 6540,
      "ping": 6541,
      "pra": 6542,
      "packet": 6543,
      "rum": 6544,
      "sigh": 6545,
      "tit": 6546,
      "##gi": 6547,
      "##dry": 6548,
      "##lift": 6549,
      "##opard": 6550,
      "twelve": 6551,
      "beam": 6552,
      "##ndown": 6553,
      "perspective": 6554,
      "##acher": 6555,
      "caramel": 6556,
      "outdated": 6557,
      "blade": 6558,
      "parks": 6559,
      "bases": 6560,
      "motes": 6561,
      "couples": 6562,
      "wakeb": 6563,
      "leopard": 6564,
      "throughout": 6565,
      "brownies": 6566,
      "column": 6567,
      "prey": 6568,
      "standup": 6569,
      "checked": 6570,
      "unb": 6571,
      "fours": 6572,
      "sunb": 6573,
      "knot": 6574,
      "races": 6575,
      "brushed": 6576,
      "triangle": 6577,
      "paying": 6578,
      "entire": 6579,
      "newborn": 6580,
      "paddock": 6581,
      "##meal": 6582,
      "arts": 6583,
      "burgers": 6584,
      "crazy": 6585,
      "misses": 6586,
      "india": 6587,
      "tongs": 6588,
      "angel": 6589,
      "ribbons": 6590,
      "rundown": 6591,
      "protru": 6592,
      "recently": 6593,
      "region": 6594,
      "arrive": 6595,
      "kayaks": 6596,
      "divider": 6597,
      "dunkin": 6598,
      "employee": 6599,
      "bruss": 6600,
      "demonstration": 6601,
      "skew": 6602,
      "spreads": 6603,
      "investigating": 6604,
      "graphic": 6605,
      "juicer": 6606,
      "community": 6607,
      "dangling": 6608,
      "plunger": 6609,
      "terrier": 6610,
      "twenty": 6611,
      "quarters": 6612,
      "canvas": 6613,
      "nokia": 6614,
      "bake": 6615,
      "dy": 6616,
      "gifts": 6617,
      "norm": 6618,
      "pong": 6619,
      "tr": 6620,
      "tric": 6621,
      "wid": 6622,
      "##ha": 6623,
      "##nas": 6624,
      "##well": 6625,
      "##itti": 6626,
      "whip": 6627,
      "laps": 6628,
      "bust": 6629,
      "seal": 6630,
      "##stract": 6631,
      "playfully": 6632,
      "combo": 6633,
      "coaches": 6634,
      "backside": 6635,
      "constructed": 6636,
      "boating": 6637,
      "abstract": 6638,
      "unkn": 6639,
      "lock": 6640,
      "whose": 6641,
      "steal": 6642,
      "diners": 6643,
      "shears": 6644,
      "blank": 6645,
      "rounded": 6646,
      "butcher": 6647,
      "ceilings": 6648,
      "preser": 6649,
      "glaze": 6650,
      "laughs": 6651,
      "patterns": 6652,
      "magnet": 6653,
      "univers": 6654,
      "bundt": 6655,
      "idly": 6656,
      "operated": 6657,
      "learn": 6658,
      "streetlights": 6659,
      "bordered": 6660,
      "mailbox": 6661,
      "merch": 6662,
      "foamy": 6663,
      "spanish": 6664,
      "lunges": 6665,
      "palace": 6666,
      "southw": 6667,
      "wrestling": 6668,
      "luxury": 6669,
      "graduation": 6670,
      "mechanical": 6671,
      "technolog": 6672,
      "spiral": 6673,
      "trotting": 6674,
      "injured": 6675,
      "goofy": 6676,
      "minimal": 6677,
      "austral": 6678,
      "oatmeal": 6679,
      "miscell": 6680,
      "poodle": 6681,
      "samsung": 6682,
      "cheeseburger": 6683,
      "sauerkraut": 6684,
      "unknown": 6685,
      "award": 6686,
      "crying": 6687,
      "ere": 6688,
      "iro": 6689,
      "north": 6690,
      "rul": 6691,
      "tack": 6692,
      "tips": 6693,
      "vines": 6694,
      "zip": 6695,
      "##ae": 6696,
      "##dale": 6697,
      "##cis": 6698,
      "##lect": 6699,
      "inner": 6700,
      "##etted": 6701,
      "##olding": 6702,
      "peer": 6703,
      "peels": 6704,
      "shark": 6705,
      "##vered": 6706,
      "holly": 6707,
      "boston": 6708,
      "outhouse": 6709,
      "##aining": 6710,
      "blown": 6711,
      "airliners": 6712,
      "##stick": 6713,
      "playful": 6714,
      "succ": 6715,
      "forrest": 6716,
      "coal": 6717,
      "lizard": 6718,
      "overalls": 6719,
      "least": 6720,
      "ash": 6721,
      "lighter": 6722,
      "##ifying": 6723,
      "program": 6724,
      "cabs": 6725,
      "pitches": 6726,
      "pancake": 6727,
      "exch": 6728,
      "performance": 6729,
      "squee": 6730,
      "bushy": 6731,
      "partition": 6732,
      "submar": 6733,
      "families": 6734,
      "flatbread": 6735,
      "rugby": 6736,
      "sweets": 6737,
      "##ensely": 6738,
      "starts": 6739,
      "propellor": 6740,
      "presenting": 6741,
      "leafless": 6742,
      "rearview": 6743,
      "david": 6744,
      "brace": 6745,
      "relig": 6746,
      "wreath": 6747,
      "nightstands": 6748,
      "drum": 6749,
      "oversized": 6750,
      "croissants": 6751,
      "discussing": 6752,
      "skelet": 6753,
      "converted": 6754,
      "hours": 6755,
      "trophy": 6756,
      "chicago": 6757,
      "establishment": 6758,
      "jewelry": 6759,
      "##dryer": 6760,
      "ironing": 6761,
      "submarine": 6762,
      "ara": 6763,
      "age": 6764,
      "bitten": 6765,
      "ding": 6766,
      "fellow": 6767,
      "gig": 6768,
      "lic": 6769,
      "oar": 6770,
      "tightly": 6771,
      "vers": 6772,
      "##ham": 6773,
      "##arf": 6774,
      "##icles": 6775,
      "##icular": 6776,
      "##abil": 6777,
      "beads": 6778,
      "roasting": 6779,
      "coupe": 6780,
      "fixed": 6781,
      "##ami": 6782,
      "##atee": 6783,
      "batch": 6784,
      "snowman": 6785,
      "grind": 6786,
      "banners": 6787,
      "feather": 6788,
      "abund": 6789,
      "##venile": 6790,
      "boxed": 6791,
      "sunrise": 6792,
      "mark": 6793,
      "panting": 6794,
      "##inton": 6795,
      "creature": 6796,
      "curbside": 6797,
      "juvenile": 6798,
      "##iously": 6799,
      "harley": 6800,
      "shovel": 6801,
      "discs": 6802,
      "costumed": 6803,
      "microphones": 6804,
      "labels": 6805,
      "alleyway": 6806,
      "bundles": 6807,
      "pleas": 6808,
      "recipe": 6809,
      "pud": 6810,
      "anticip": 6811,
      "peaceful": 6812,
      "folks": 6813,
      "seasoned": 6814,
      "companion": 6815,
      "pineapples": 6816,
      "eager": 6817,
      "robes": 6818,
      "cottage": 6819,
      "crumbs": 6820,
      "releasing": 6821,
      "twigs": 6822,
      "navig": 6823,
      "flanked": 6824,
      "chatting": 6825,
      "projection": 6826,
      "miscellaneous": 6827,
      "arab": 6828,
      "gummy": 6829,
      "tshirt": 6830,
      "vel": 6831,
      "zomb": 6832,
      "##yle": 6833,
      "##uck": 6834,
      "##rd": 6835,
      "##ike": 6836,
      "peoples": 6837,
      "chun": 6838,
      "charm": 6839,
      "frow": 6840,
      "battle": 6841,
      "floored": 6842,
      "waln": 6843,
      "grate": 6844,
      "seper": 6845,
      "loose": 6846,
      "bedside": 6847,
      "motoc": 6848,
      "conven": 6849,
      "almon": 6850,
      "slal": 6851,
      "intense": 6852,
      "deal": 6853,
      "scall": 6854,
      "photoshop": 6855,
      "spraw": 6856,
      "livingroom": 6857,
      "banks": 6858,
      "soars": 6859,
      "sheeps": 6860,
      "hitched": 6861,
      "union": 6862,
      "##acy": 6863,
      "curls": 6864,
      "allowed": 6865,
      "monk": 6866,
      "canned": 6867,
      "shearing": 6868,
      "freely": 6869,
      "century": 6870,
      "##boats": 6871,
      "centerpiece": 6872,
      "##pos": 6873,
      "quiche": 6874,
      "wedges": 6875,
      "overlook": 6876,
      "toddlers": 6877,
      "##uffed": 6878,
      "celebratory": 6879,
      "melon": 6880,
      "knitting": 6881,
      "repairs": 6882,
      "stovet": 6883,
      "attend": 6884,
      "bison": 6885,
      "barbeque": 6886,
      "automobiles": 6887,
      "hawai": 6888,
      "pilots": 6889,
      "pelicans": 6890,
      "drops": 6891,
      "revealing": 6892,
      "navigating": 6893,
      "seasoning": 6894,
      "participating": 6895,
      "promin": 6896,
      "invol": 6897,
      "varying": 6898,
      "panoramic": 6899,
      "effect": 6900,
      "demol": 6901,
      "horizontal": 6902,
      "swiftly": 6903,
      "tricycle": 6904,
      "almonds": 6905,
      "bom": 6906,
      "galley": 6907,
      "last": 6908,
      "mick": 6909,
      "poo": 6910,
      "sure": 6911,
      "via": 6912,
      "vib": 6913,
      "wants": 6914,
      "yaw": 6915,
      "##haw": 6916,
      "##col": 6917,
      "##atively": 6918,
      "sta": 6919,
      "##outs": 6920,
      "##raction": 6921,
      "neath": 6922,
      "whine": 6923,
      "bearing": 6924,
      "plac": 6925,
      "bored": 6926,
      "parlor": 6927,
      "laven": 6928,
      "cos": 6929,
      "alt": 6930,
      "brownie": 6931,
      "tem": 6932,
      "coral": 6933,
      "##aces": 6934,
      "sunflower": 6935,
      "attraction": 6936,
      "amen": 6937,
      "looked": 6938,
      "mats": 6939,
      "surrounds": 6940,
      "exe": 6941,
      "patient": 6942,
      "beaks": 6943,
      "bushels": 6944,
      "##olded": 6945,
      "facial": 6946,
      "sailors": 6947,
      "packaging": 6948,
      "##posed": 6949,
      "bloom": 6950,
      "burned": 6951,
      "##bank": 6952,
      "dollar": 6953,
      "visor": 6954,
      "##uffs": 6955,
      "flipped": 6956,
      "hamster": 6957,
      "waterski": 6958,
      "collie": 6959,
      "exha": 6960,
      "repres": 6961,
      "bento": 6962,
      "buliding": 6963,
      "nails": 6964,
      "indicate": 6965,
      "booths": 6966,
      "saddled": 6967,
      "volks": 6968,
      "elbow": 6969,
      "popular": 6970,
      "stroll": 6971,
      "##ebox": 6972,
      "parasols": 6973,
      "messing": 6974,
      "renovation": 6975,
      "mannequins": 6976,
      "discussion": 6977,
      "incre": 6978,
      "tusked": 6979,
      "gestures": 6980,
      "details": 6981,
      "hurdle": 6982,
      "victorian": 6983,
      "diagonal": 6984,
      "windmill": 6985,
      "clydes": 6986,
      "prair": 6987,
      "religious": 6988,
      "frowning": 6989,
      "stovetop": 6990,
      "yawning": 6991,
      "bm": 6992,
      "bound": 6993,
      "bits": 6994,
      "dated": 6995,
      "punch": 6996,
      "roped": 6997,
      "samp": 6998,
      "##gle": 6999,
      "##pace": 7000,
      "##pipe": 7001,
      "##nes": 7002,
      "##das": 7003,
      "##dling": 7004,
      "##creen": 7005,
      "##iel": 7006,
      "##wag": 7007,
      "##water": 7008,
      "##ints": 7009,
      "##inted": 7010,
      "ank": 7011,
      "mantel": 7012,
      "##arded": 7013,
      "beag": 7014,
      "##ader": 7015,
      "lazy": 7016,
      "uphill": 7017,
      "##airs": 7018,
      "kitchenette": 7019,
      "mens": 7020,
      "glassware": 7021,
      "scaff": 7022,
      "handler": 7023,
      "handmade": 7024,
      "##apen": 7025,
      "sox": 7026,
      "goatee": 7027,
      "controlling": 7028,
      "dinos": 7029,
      "planted": 7030,
      "raincoat": 7031,
      "numbered": 7032,
      "photographing": 7033,
      "hairdryer": 7034,
      "stately": 7035,
      "exper": 7036,
      "urn": 7037,
      "platforms": 7038,
      "directs": 7039,
      "concer": 7040,
      "tanks": 7041,
      "swimmers": 7042,
      "matches": 7043,
      "pointy": 7044,
      "locations": 7045,
      "##tible": 7046,
      "##bbled": 7047,
      "cruising": 7048,
      "taste": 7049,
      "childs": 7050,
      "shrub": 7051,
      "pinned": 7052,
      "sprayed": 7053,
      "aprons": 7054,
      "workspace": 7055,
      "parachutes": 7056,
      "sneaker": 7057,
      "activity": 7058,
      "repairing": 7059,
      "edges": 7060,
      "fixes": 7061,
      "contempl": 7062,
      "convertible": 7063,
      "scoop": 7064,
      "wonderful": 7065,
      "barricade": 7066,
      "gnar": 7067,
      "vessel": 7068,
      "coconut": 7069,
      "cheek": 7070,
      "crooked": 7071,
      "cannot": 7072,
      "rooftop": 7073,
      "preforming": 7074,
      "davidson": 7075,
      "pudding": 7076,
      "velvet": 7077,
      "chunks": 7078,
      "mickey": 7079,
      "lavender": 7080,
      "exhaust": 7081,
      "prairie": 7082,
      "cyl": 7083,
      "east": 7084,
      "france": 7085,
      "jal": 7086,
      "ner": 7087,
      "tipped": 7088,
      "##ho": 7089,
      "sitt": 7090,
      "##elines": 7091,
      "##vern": 7092,
      "pars": 7093,
      "lace": 7094,
      "lavis": 7095,
      "##veled": 7096,
      "grid": 7097,
      "grano": 7098,
      "seash": 7099,
      "##ential": 7100,
      "cob": 7101,
      "##ieval": 7102,
      "overh": 7103,
      "score": 7104,
      "handling": 7105,
      "rais": 7106,
      "bows": 7107,
      "offers": 7108,
      "sales": 7109,
      "knight": 7110,
      "emo": 7111,
      "##aki": 7112,
      "bark": 7113,
      "forehand": 7114,
      "##dering": 7115,
      "purses": 7116,
      "better": 7117,
      "triangular": 7118,
      "host": 7119,
      "given": 7120,
      "shakes": 7121,
      "wildflowers": 7122,
      "arranging": 7123,
      "profile": 7124,
      "##scale": 7125,
      "baker": 7126,
      "burg": 7127,
      "commuters": 7128,
      "misty": 7129,
      "medieval": 7130,
      "casually": 7131,
      "masks": 7132,
      "celebrate": 7133,
      "denim": 7134,
      "dumpster": 7135,
      "pops": 7136,
      "guards": 7137,
      "peanuts": 7138,
      "needles": 7139,
      "silhouetted": 7140,
      "legos": 7141,
      "cockpit": 7142,
      "marshm": 7143,
      "symbols": 7144,
      "luxur": 7145,
      "dolly": 7146,
      "searching": 7147,
      "francis": 7148,
      "##works": 7149,
      "ruler": 7150,
      "skeleton": 7151,
      "license": 7152,
      "slalom": 7153,
      "vibrant": 7154,
      "dinosaur": 7155,
      "lavish": 7156,
      "granola": 7157,
      "francisco": 7158,
      "dental": 7159,
      "eiff": 7160,
      "mm": 7161,
      "occ": 7162,
      "pins": 7163,
      "sen": 7164,
      "tas": 7165,
      "vw": 7166,
      "##dles": 7167,
      "##cer": 7168,
      "##itol": 7169,
      "toll": 7170,
      "tons": 7171,
      "stro": 7172,
      "##ometer": 7173,
      "##olin": 7174,
      "##ards": 7175,
      "beams": 7176,
      "doily": 7177,
      "##ached": 7178,
      "##ander": 7179,
      "flour": 7180,
      "##stairs": 7181,
      "overview": 7182,
      "mouses": 7183,
      "always": 7184,
      "graf": 7185,
      "switch": 7186,
      "dives": 7187,
      "eachother": 7188,
      "cheer": 7189,
      "unh": 7190,
      "arches": 7191,
      "racers": 7192,
      "halfpipe": 7193,
      "armchair": 7194,
      "hugs": 7195,
      "wraps": 7196,
      "quar": 7197,
      "rooster": 7198,
      "capitol": 7199,
      "leafs": 7200,
      "adorn": 7201,
      "usa": 7202,
      "cowboys": 7203,
      "filming": 7204,
      "related": 7205,
      "await": 7206,
      "detour": 7207,
      "minutes": 7208,
      "##undy": 7209,
      "movies": 7210,
      "nowhere": 7211,
      "defensive": 7212,
      "drums": 7213,
      "spanning": 7214,
      "socializing": 7215,
      "browsing": 7216,
      "nibbling": 7217,
      "icebox": 7218,
      "duffel": 7219,
      "dangerous": 7220,
      "address": 7221,
      "toliet": 7222,
      "normal": 7223,
      "gigantic": 7224,
      "hawaiian": 7225,
      "volkswag": 7226,
      "sampling": 7227,
      "beagle": 7228,
      "burgundy": 7229,
      "eiffel": 7230,
      "bon": 7231,
      "cds": 7232,
      "crop": 7233,
      "dar": 7234,
      "es": 7235,
      "ec": 7236,
      "gay": 7237,
      "gum": 7238,
      "hoo": 7239,
      "ivy": 7240,
      "lla": 7241,
      "linger": 7242,
      "mal": 7243,
      "pric": 7244,
      "ray": 7245,
      "rared": 7246,
      "sip": 7247,
      "tater": 7248,
      "testing": 7249,
      "tells": 7250,
      "val": 7251,
      "wrench": 7252,
      "yak": 7253,
      "##of": 7254,
      "##nie": 7255,
      "##wed": 7256,
      "anten": 7257,
      "##rob": 7258,
      "tots": 7259,
      "##orium": 7260,
      "##oun": 7261,
      "manic": 7262,
      "manual": 7263,
      "##elt": 7264,
      "whom": 7265,
      "buoy": 7266,
      "choo": 7267,
      "chip": 7268,
      "doc": 7269,
      "parmes": 7270,
      "law": 7271,
      "upscale": 7272,
      "ripped": 7273,
      "##igns": 7274,
      "##ulture": 7275,
      "reco": 7276,
      "waking": 7277,
      "disg": 7278,
      "handstand": 7279,
      "diet": 7280,
      "##ifier": 7281,
      "soil": 7282,
      "sodas": 7283,
      "hilltop": 7284,
      "headset": 7285,
      "stationed": 7286,
      "hatch": 7287,
      "##ustr": 7288,
      "breaded": 7289,
      "tripod": 7290,
      "cleaner": 7291,
      "penny": 7292,
      "credit": 7293,
      "facade": 7294,
      "basement": 7295,
      "sailor": 7296,
      "messages": 7297,
      "starring": 7298,
      "grows": 7299,
      "jean": 7300,
      "petals": 7301,
      "transported": 7302,
      "audit": 7303,
      "##plant": 7304,
      "illustr": 7305,
      "mattresses": 7306,
      "combined": 7307,
      "ordering": 7308,
      "friendly": 7309,
      "festive": 7310,
      "majestic": 7311,
      "maybe": 7312,
      "ostriches": 7313,
      "limbs": 7314,
      "pigs": 7315,
      "sidelines": 7316,
      "impress": 7317,
      "donkeys": 7318,
      "receiving": 7319,
      "tones": 7320,
      "autograph": 7321,
      "mcdonald": 7322,
      "university": 7323,
      "dingy": 7324,
      "arabic": 7325,
      "sprawled": 7326,
      "demolished": 7327,
      "temple": 7328,
      "amenities": 7329,
      "clydesdale": 7330,
      "bmw": 7331,
      "concerned": 7332,
      "marshmallow": 7333,
      "luxurious": 7334,
      "parmesan": 7335,
      "auditorium": 7336,
      "date": 7337,
      "ipad": 7338,
      "jun": 7339,
      "jac": 7340,
      "mile": 7341,
      "munching": 7342,
      "sings": 7343,
      "wades": 7344,
      "##sure": 7345,
      "##held": 7346,
      "##rid": 7347,
      "##dor": 7348,
      "##vor": 7349,
      "##kward": 7350,
      "onward": 7351,
      "##lem": 7352,
      "##atten": 7353,
      "##ene": 7354,
      "##ala": 7355,
      "isn": 7356,
      "mang": 7357,
      "##tingu": 7358,
      "pecking": 7359,
      "womans": 7360,
      "fift": 7361,
      "##hern": 7362,
      "paris": 7363,
      "ribs": 7364,
      "concept": 7365,
      "compon": 7366,
      "sli": 7367,
      "slat": 7368,
      "hey": 7369,
      "handrail": 7370,
      "raz": 7371,
      "spi": 7372,
      "##agna": 7373,
      "maple": 7374,
      "##lesc": 7375,
      "adding": 7376,
      "unatten": 7377,
      "envel": 7378,
      "arid": 7379,
      "breaks": 7380,
      "homeless": 7381,
      "poll": 7382,
      "restaurants": 7383,
      "orig": 7384,
      "planters": 7385,
      "sheared": 7386,
      "mature": 7387,
      "speckled": 7388,
      "patches": 7389,
      "swimsuit": 7390,
      "flys": 7391,
      "globe": 7392,
      "##enders": 7393,
      "artist": 7394,
      "cracker": 7395,
      "clause": 7396,
      "discarded": 7397,
      "circles": 7398,
      "fighters": 7399,
      "stradd": 7400,
      "lids": 7401,
      "medal": 7402,
      "charter": 7403,
      "petted": 7404,
      "awkward": 7405,
      "##ptions": 7406,
      "observes": 7407,
      "converse": 7408,
      "##uzzi": 7409,
      "cliffs": 7410,
      "embed": 7411,
      "obstacles": 7412,
      "protect": 7413,
      "linked": 7414,
      "shutters": 7415,
      "lobster": 7416,
      "clustered": 7417,
      "badm": 7418,
      "seaside": 7419,
      "alcoholic": 7420,
      "youths": 7421,
      "billboards": 7422,
      "member": 7423,
      "grasslands": 7424,
      "woolly": 7425,
      "missed": 7426,
      "aiming": 7427,
      "announ": 7428,
      "purchase": 7429,
      "wildebeest": 7430,
      "amazing": 7431,
      "lasagna": 7432,
      "proceed": 7433,
      "loveseat": 7434,
      "hollywood": 7435,
      "jacuzzi": 7436,
      "unattended": 7437,
      "ado": 7438,
      "bris": 7439,
      "cash": 7440,
      "dw": 7441,
      "did": 7442,
      "ditch": 7443,
      "er": 7444,
      "effic": 7445,
      "easter": 7446,
      "edible": 7447,
      "hus": 7448,
      "lass": 7449,
      "nude": 7450,
      "pound": 7451,
      "prist": 7452,
      "puffy": 7453,
      "puzz": 7454,
      "sed": 7455,
      "uk": 7456,
      "##oles": 7457,
      "##gons": 7458,
      "##yon": 7459,
      "##eing": 7460,
      "##aled": 7461,
      "##for": 7462,
      "##ana": 7463,
      "##lev": 7464,
      "##ism": 7465,
      "necess": 7466,
      "##ict": 7467,
      "bubbles": 7468,
      "bee": 7469,
      "shred": 7470,
      "##antly": 7471,
      "outlet": 7472,
      "sele": 7473,
      "sequ": 7474,
      "skaters": 7475,
      "##zzle": 7476,
      "hero": 7477,
      "pockets": 7478,
      "##ght": 7479,
      "##ief": 7480,
      "overfl": 7481,
      "eatery": 7482,
      "weight": 7483,
      "wagons": 7484,
      "compo": 7485,
      "alter": 7486,
      "intensely": 7487,
      "##shot": 7488,
      "scot": 7489,
      "fireworks": 7490,
      "teacher": 7491,
      "guides": 7492,
      "##eye": 7493,
      "unident": 7494,
      "lost": 7495,
      "looms": 7496,
      "potty": 7497,
      "booze": 7498,
      "##weed": 7499,
      "expla": 7500,
      "workshop": 7501,
      "placemat": 7502,
      "stairwell": 7503,
      "fisheye": 7504,
      "creamy": 7505,
      "winery": 7506,
      "freez": 7507,
      "seaweed": 7508,
      "cardinal": 7509,
      "naps": 7510,
      "steaming": 7511,
      "visiting": 7512,
      "sprinkle": 7513,
      "boulder": 7514,
      "angles": 7515,
      "angels": 7516,
      "celebrates": 7517,
      "gazebo": 7518,
      "ordered": 7519,
      "strolling": 7520,
      "melting": 7521,
      "arrives": 7522,
      "africa": 7523,
      "automatic": 7524,
      "bloody": 7525,
      "inspects": 7526,
      "satell": 7527,
      "##foil": 7528,
      "years": 7529,
      "domed": 7530,
      "source": 7531,
      "occupied": 7532,
      "perfectly": 7533,
      "chalkboard": 7534,
      "exercise": 7535,
      "etc": 7536,
      "plums": 7537,
      "fourt": 7538,
      "leftover": 7539,
      "landscaping": 7540,
      "protruding": 7541,
      "technology": 7542,
      "pooh": 7543,
      "waterskiing": 7544,
      "scaffolding": 7545,
      "parsley": 7546,
      "embedded": 7547,
      "badminton": 7548,
      "ber": 7549,
      "cider": 7550,
      "foo": 7551,
      "hope": 7552,
      "jes": 7553,
      "kh": 7554,
      "kil": 7555,
      "keeping": 7556,
      "moose": 7557,
      "song": 7558,
      "sipping": 7559,
      "##glass": 7560,
      "##gien": 7561,
      "##ucc": 7562,
      "##hn": 7563,
      "##ecting": 7564,
      "##aved": 7565,
      "##nting": 7566,
      "##ank": 7567,
      "theat": 7568,
      "witha": 7569,
      "##isine": 7570,
      "##rack": 7571,
      "##ota": 7572,
      "why": 7573,
      "bum": 7574,
      "beet": 7575,
      "beets": 7576,
      "shield": 7577,
      "holing": 7578,
      "cha": 7579,
      "dod": 7580,
      "launching": 7581,
      "ups": 7582,
      "flats": 7583,
      "snake": 7584,
      "surg": 7585,
      "secl": 7586,
      "sup": 7587,
      "liber": 7588,
      "motorists": 7589,
      "##tles": 7590,
      "desolate": 7591,
      "slats": 7592,
      "sloped": 7593,
      "grains": 7594,
      "spl": 7595,
      "spilled": 7596,
      "spending": 7597,
      "swir": 7598,
      "fired": 7599,
      "dips": 7600,
      "study": 7601,
      "hygien": 7602,
      "wiim": 7603,
      "moved": 7604,
      "unpack": 7605,
      "##ipher": 7606,
      "acrob": 7607,
      "##pect": 7608,
      "peripher": 7609,
      "hound": 7610,
      "ages": 7611,
      "allow": 7612,
      "jetliners": 7613,
      "riverbank": 7614,
      "ord": 7615,
      "##cedes": 7616,
      "rains": 7617,
      "panels": 7618,
      "battery": 7619,
      "photography": 7620,
      "picket": 7621,
      "picturesque": 7622,
      "seeming": 7623,
      "interview": 7624,
      "antiques": 7625,
      "ornately": 7626,
      "shipping": 7627,
      "guitars": 7628,
      "copper": 7629,
      "focal": 7630,
      "infield": 7631,
      "organic": 7632,
      "joy": 7633,
      "billowing": 7634,
      "warmly": 7635,
      "tinfoil": 7636,
      "hungry": 7637,
      "util": 7638,
      "install": 7639,
      "notebooks": 7640,
      "collect": 7641,
      "crashed": 7642,
      "crashes": 7643,
      "stocking": 7644,
      "elaborately": 7645,
      "tissues": 7646,
      "fitted": 7647,
      "cotton": 7648,
      "cocktail": 7649,
      "tilting": 7650,
      "assembled": 7651,
      "memorabil": 7652,
      "aqua": 7653,
      "receipt": 7654,
      "detailed": 7655,
      "blenders": 7656,
      "resemble": 7657,
      "fuel": 7658,
      "remodeling": 7659,
      "aerop": 7660,
      "proudly": 7661,
      "departing": 7662,
      "brussel": 7663,
      "abundance": 7664,
      "placid": 7665,
      "altitude": 7666,
      "raisins": 7667,
      "razor": 7668,
      "jesus": 7669,
      "seemingly": 7670,
      "memorabilia": 7671,
      "cycling": 7672,
      "ener": 7673,
      "kio": 7674,
      "mari": 7675,
      "munch": 7676,
      "merry": 7677,
      "sin": 7678,
      "##oke": 7679,
      "##gely": 7680,
      "##ys": 7681,
      "##uded": 7682,
      "##izz": 7683,
      "##bla": 7684,
      "##inis": 7685,
      "##ances": 7686,
      "##len": 7687,
      "inse": 7688,
      "##ros": 7689,
      "##asion": 7690,
      "##opened": 7691,
      "##igan": 7692,
      "pews": 7693,
      "skill": 7694,
      "chase": 7695,
      "chases": 7696,
      "topless": 7697,
      "based": 7698,
      "reigns": 7699,
      "blvd": 7700,
      "build": 7701,
      "heron": 7702,
      "dispos": 7703,
      "heating": 7704,
      "handheld": 7705,
      "trench": 7706,
      "teh": 7707,
      "countries": 7708,
      "offering": 7709,
      "restored": 7710,
      "uneat": 7711,
      "acting": 7712,
      "loads": 7713,
      "longboard": 7714,
      "ridge": 7715,
      "tvs": 7716,
      "mono": 7717,
      "leaking": 7718,
      "lincol": 7719,
      "appo": 7720,
      "scenes": 7721,
      "sticky": 7722,
      "shopped": 7723,
      "common": 7724,
      "cooker": 7725,
      "flames": 7726,
      "creme": 7727,
      "distorted": 7728,
      "drawings": 7729,
      "takeout": 7730,
      "balding": 7731,
      "curtained": 7732,
      "juggling": 7733,
      "rounds": 7734,
      "favor": 7735,
      "formations": 7736,
      "turb": 7737,
      "extern": 7738,
      "strung": 7739,
      "pawing": 7740,
      "america": 7741,
      "streaming": 7742,
      "crock": 7743,
      "infront": 7744,
      "tuna": 7745,
      "prints": 7746,
      "sprays": 7747,
      "collared": 7748,
      "avoid": 7749,
      "gazes": 7750,
      "parake": 7751,
      "onlooker": 7752,
      "serviced": 7753,
      "gripping": 7754,
      "dispensers": 7755,
      "faucets": 7756,
      "cuisine": 7757,
      "fatig": 7758,
      "strand": 7759,
      "windsurfer": 7760,
      "keeps": 7761,
      "flavor": 7762,
      "competitor": 7763,
      "antelopes": 7764,
      "cuddled": 7765,
      "saucers": 7766,
      "slender": 7767,
      "penguins": 7768,
      "avocados": 7769,
      "nuzzle": 7770,
      "reveals": 7771,
      "bandanna": 7772,
      "apparat": 7773,
      "investig": 7774,
      "lipstick": 7775,
      "remodel": 7776,
      "gulls": 7777,
      "poorly": 7778,
      "rushing": 7779,
      "congregate": 7780,
      "teammates": 7781,
      "concentrating": 7782,
      "lantern": 7783,
      "maintained": 7784,
      "southwest": 7785,
      "version": 7786,
      "photoshopped": 7787,
      "bomber": 7788,
      "senior": 7789,
      "husband": 7790,
      "pristine": 7791,
      "##levard": 7792,
      "secluded": 7793,
      "liberty": 7794,
      "hygiene": 7795,
      "uneaten": 7796,
      "lincoln": 7797,
      "favorite": 7798,
      "external": 7799,
      "cities": 7800,
      "dv": 7801,
      "dut": 7802,
      "hips": 7803,
      "jail": 7804,
      "kore": 7805,
      "ming": 7806,
      "mam": 7807,
      "py": 7808,
      "pome": 7809,
      "pumps": 7810,
      "tang": 7811,
      "tiling": 7812,
      "tins": 7813,
      "want": 7814,
      "wade": 7815,
      "wife": 7816,
      "##gran": 7817,
      "##yer": 7818,
      "##ued": 7819,
      "##unt": 7820,
      "##emb": 7821,
      "##long": 7822,
      "##ita": 7823,
      "ans": 7824,
      "stark": 7825,
      "##asy": 7826,
      "##onge": 7827,
      "##iser": 7828,
      "plans": 7829,
      "plumb": 7830,
      "chim": 7831,
      "chub": 7832,
      "doctor": 7833,
      "outc": 7834,
      "fronts": 7835,
      "blackberry": 7836,
      "##mber": 7837,
      "cale": 7838,
      "tap": 7839,
      "spider": 7840,
      "firemen": 7841,
      "texture": 7842,
      "colt": 7843,
      "feild": 7844,
      "drift": 7845,
      "guided": 7846,
      "unopened": 7847,
      "##thora": 7848,
      "walker": 7849,
      "marine": 7850,
      "ago": 7851,
      "canyon": 7852,
      "rocket": 7853,
      "sheering": 7854,
      "batteries": 7855,
      "extingu": 7856,
      "attachment": 7857,
      "shoppers": 7858,
      "creating": 7859,
      "lapel": 7860,
      "##isters": 7861,
      "crafting": 7862,
      "chops": 7863,
      "advertises": 7864,
      "minivan": 7865,
      "glide": 7866,
      "spotless": 7867,
      "boulevard": 7868,
      "##covered": 7869,
      "waiter": 7870,
      "completing": 7871,
      "ducklings": 7872,
      "organiz": 7873,
      "procession": 7874,
      "suspenders": 7875,
      "cigarettes": 7876,
      "jerseys": 7877,
      "turkeys": 7878,
      "plethora": 7879,
      "wrappers": 7880,
      "notepad": 7881,
      "attendant": 7882,
      "possible": 7883,
      "rollerbla": 7884,
      "emerging": 7885,
      "exposure": 7886,
      "tattooed": 7887,
      "hearty": 7888,
      "protesters": 7889,
      "admire": 7890,
      "butterflies": 7891,
      "gazelles": 7892,
      "demonstrating": 7893,
      "therm": 7894,
      "orchard": 7895,
      "temporary": 7896,
      "duffle": 7897,
      "violin": 7898,
      "gorilla": 7899,
      "goblets": 7900,
      "international": 7901,
      "rhinos": 7902,
      "firefighters": 7903,
      "rumpled": 7904,
      "eagerly": 7905,
      "prominent": 7906,
      "jalapen": 7907,
      "seashore": 7908,
      "antenna": 7909,
      "marshmallows": 7910,
      "mangoes": 7911,
      "overflowing": 7912,
      "kiosk": 7913,
      "pomegran": 7914,
      "chubby": 7915,
      "broom": 7916,
      "binder": 7917,
      "dell": 7918,
      "dummy": 7919,
      "gru": 7920,
      "gree": 7921,
      "hate": 7922,
      "ken": 7923,
      "lan": 7924,
      "lets": 7925,
      "loll": 7926,
      "nun": 7927,
      "nets": 7928,
      "nunch": 7929,
      "options": 7930,
      "pam": 7931,
      "wars": 7932,
      "##uary": 7933,
      "##bur": 7934,
      "##robe": 7935,
      "##asc": 7936,
      "##ont": 7937,
      "##organ": 7938,
      "##rador": 7939,
      "##ersh": 7940,
      "shoot": 7941,
      "shares": 7942,
      "pliers": 7943,
      "chute": 7944,
      "streetcar": 7945,
      "laz": 7946,
      "flu": 7947,
      "flop": 7948,
      "rivers": 7949,
      "##kee": 7950,
      "signpost": 7951,
      "##storm": 7952,
      "moto": 7953,
      "motif": 7954,
      "eleven": 7955,
      "weed": 7956,
      "lecture": 7957,
      "tagging": 7958,
      "spice": 7959,
      "spool": 7960,
      "sponge": 7961,
      "swit": 7962,
      "skylight": 7963,
      "luck": 7964,
      "broke": 7965,
      "guarding": 7966,
      "days": 7967,
      "dressers": 7968,
      "loving": 7969,
      "knif": 7970,
      "march": 7971,
      "attic": 7972,
      "##losure": 7973,
      "##weight": 7974,
      "##onda": 7975,
      "strikes": 7976,
      "created": 7977,
      "pavil": 7978,
      "eggplant": 7979,
      "schem": 7980,
      "centered": 7981,
      "jud": 7982,
      "businessmen": 7983,
      "earphones": 7984,
      "pepperon": 7985,
      "signaling": 7986,
      "accord": 7987,
      "railings": 7988,
      "media": 7989,
      "##mobile": 7990,
      "angled": 7991,
      "arrangements": 7992,
      "labrador": 7993,
      "confused": 7994,
      "jogging": 7995,
      "filtered": 7996,
      "protesting": 7997,
      "doubled": 7998,
      "mayon": 7999,
      "coastline": 8000,
      "tights": 8001,
      "rectangle": 8002,
      "provides": 8003,
      "nurse": 8004,
      "guns": 8005,
      "fixings": 8006,
      "citiz": 8007,
      "blindf": 8008,
      "apparently": 8009,
      "pacific": 8010,
      "mossy": 8011,
      "dolph": 8012,
      "sample": 8013,
      "venue": 8014,
      "clutching": 8015,
      "blossom": 8016,
      "knobs": 8017,
      "dreary": 8018,
      "attacking": 8019,
      "wakeboard": 8020,
      "success": 8021,
      "exchanging": 8022,
      "pleasant": 8023,
      "exec": 8024,
      "incredible": 8025,
      "prices": 8026,
      "satellite": 8027,
      "theatre": 8028,
      "flatscreen": 8029,
      "apparatus": 8030,
      "dvds": 8031,
      "pyram": 8032,
      "chimney": 8033,
      "outcrop": 8034,
      "##organized": 8035,
      "aj": 8036,
      "ale": 8037,
      "coo": 8038,
      "crush": 8039,
      "der": 8040,
      "daff": 8041,
      "ev": 8042,
      "fal": 8043,
      "fond": 8044,
      "fisher": 8045,
      "hous": 8046,
      "mul": 8047,
      "mint": 8048,
      "netting": 8049,
      "oars": 8050,
      "sking": 8051,
      "vig": 8052,
      "##game": 8053,
      "##hor": 8054,
      "##hole": 8055,
      "##away": 8056,
      "##ault": 8057,
      "##pa": 8058,
      "##por": 8059,
      "##dar": 8060,
      "##cars": 8061,
      "##li": 8062,
      "##iing": 8063,
      "##inations": 8064,
      "once": 8065,
      "##asa": 8066,
      "##ckoo": 8067,
      "##ouse": 8068,
      "##isk": 8069,
      "##iler": 8070,
      "neg": 8071,
      "twisted": 8072,
      "##icing": 8073,
      "budd": 8074,
      "trade": 8075,
      "##uristic": 8076,
      "shaker": 8077,
      "chu": 8078,
      "chunk": 8079,
      "boar": 8080,
      "lag": 8081,
      "upstairs": 8082,
      "caring": 8083,
      "outer": 8084,
      "snowmobile": 8085,
      "##igned": 8086,
      "##stool": 8087,
      "cape": 8088,
      "##rish": 8089,
      "devel": 8090,
      "tale": 8091,
      "underwater": 8092,
      "##cco": 8093,
      "##esturing": 8094,
      "dries": 8095,
      "passage": 8096,
      "passanger": 8097,
      "differently": 8098,
      "cheering": 8099,
      "brings": 8100,
      "additional": 8101,
      "crowding": 8102,
      "traveler": 8103,
      "curl": 8104,
      "canes": 8105,
      "##ishing": 8106,
      "multitude": 8107,
      "flame": 8108,
      "assisting": 8109,
      "gears": 8110,
      "##point": 8111,
      "fox": 8112,
      "reflections": 8113,
      "designated": 8114,
      "interested": 8115,
      "accent": 8116,
      "modest": 8117,
      "straps": 8118,
      "carpeting": 8119,
      "piercing": 8120,
      "dramat": 8121,
      "bought": 8122,
      "solitary": 8123,
      "adorns": 8124,
      "checkerboard": 8125,
      "connecting": 8126,
      "primit": 8127,
      "finishes": 8128,
      "campus": 8129,
      "uncom": 8130,
      "describ": 8131,
      "monkeys": 8132,
      "cuckoo": 8133,
      "clusters": 8134,
      "quilted": 8135,
      "kayaking": 8136,
      "keeper": 8137,
      "interact": 8138,
      "vacation": 8139,
      "privacy": 8140,
      "troop": 8141,
      "mercedes": 8142,
      "domin": 8143,
      "hedges": 8144,
      "flushing": 8145,
      "gorge": 8146,
      "lava": 8147,
      "motocross": 8148,
      "##hawk": 8149,
      "manicured": 8150,
      "wiimote": 8151,
      "ordinary": 8152,
      "fatigues": 8153,
      "pamph": 8154,
      "lazily": 8155,
      "scheme": 8156,
      "daffod": 8157,
      "primitive": 8158,
      "aside": 8159,
      "active": 8160,
      "bol": 8161,
      "bout": 8162,
      "civ": 8163,
      "dying": 8164,
      "dyed": 8165,
      "eth": 8166,
      "esp": 8167,
      "evil": 8168,
      "filing": 8169,
      "fills": 8170,
      "gap": 8171,
      "gesturing": 8172,
      "mich": 8173,
      "nick": 8174,
      "nail": 8175,
      "ore": 8176,
      "pest": 8177,
      "ruff": 8178,
      "sons": 8179,
      "sony": 8180,
      "ves": 8181,
      "vulture": 8182,
      "zones": 8183,
      "##ov": 8184,
      "##ux": 8185,
      "##haps": 8186,
      "##pen": 8187,
      "##dish": 8188,
      "##ci": 8189,
      "##wash": 8190,
      "##fer": 8191,
      "##erature": 8192,
      "ink": 8193,
      "toasting": 8194,
      "stab": 8195,
      "stamp": 8196,
      "isle": 8197,
      "manu": 8198,
      "mango": 8199,
      "whale": 8200,
      "bugg": 8201,
      "bucking": 8202,
      "travers": 8203,
      "plug": 8204,
      "plaster": 8205,
      "##lose": 8206,
      "chang": 8207,
      "fifth": 8208,
      "frol": 8209,
      "upcoming": 8210,
      "rich": 8211,
      "basins": 8212,
      "signed": 8213,
      "reddish": 8214,
      "surfaces": 8215,
      "baseballs": 8216,
      "bathrooms": 8217,
      "sugg": 8218,
      "foodst": 8219,
      "coins": 8220,
      "##ctuary": 8221,
      "likes": 8222,
      "##irts": 8223,
      "skiies": 8224,
      "slight": 8225,
      "sloping": 8226,
      "intent": 8227,
      "heat": 8228,
      "colon": 8229,
      "bowtie": 8230,
      "county": 8231,
      "offsp": 8232,
      "showc": 8233,
      "birdhouse": 8234,
      "saw": 8235,
      "uncovered": 8236,
      "corre": 8237,
      "##acing": 8238,
      "loaves": 8239,
      "remove": 8240,
      "highly": 8241,
      "perhaps": 8242,
      "barred": 8243,
      "mart": 8244,
      "bookcases": 8245,
      "hairbrush": 8246,
      "statute": 8247,
      "chocol": 8248,
      "hog": 8249,
      "hoses": 8250,
      "pause": 8251,
      "footp": 8252,
      "article": 8253,
      "wrink": 8254,
      "judge": 8255,
      "##scent": 8256,
      "servings": 8257,
      "##lined": 8258,
      "winning": 8259,
      "turf": 8260,
      "washes": 8261,
      "glue": 8262,
      "speedboat": 8263,
      "peek": 8264,
      "wares": 8265,
      "cubes": 8266,
      "rubble": 8267,
      "dawn": 8268,
      "magnifying": 8269,
      "princess": 8270,
      "calmly": 8271,
      "filth": 8272,
      "filmed": 8273,
      "thicket": 8274,
      "lemonade": 8275,
      "embank": 8276,
      "uncut": 8277,
      "melons": 8278,
      "needed": 8279,
      "projected": 8280,
      "deter": 8281,
      "mayo": 8282,
      "eighteen": 8283,
      "reclines": 8284,
      "unloaded": 8285,
      "nurses": 8286,
      "casts": 8287,
      "pressed": 8288,
      "easel": 8289,
      "cuddles": 8290,
      "gymnas": 8291,
      "sanctuary": 8292,
      "bridges": 8293,
      "damage": 8294,
      "thought": 8295,
      "futuristic": 8296,
      "cameram": 8297,
      "appetizing": 8298,
      "whites": 8299,
      "vertically": 8300,
      "victory": 8301,
      "pacifier": 8302,
      "yachts": 8303,
      "enthusiastic": 8304,
      "congreg": 8305,
      "teammate": 8306,
      "goblet": 8307,
      "obscured": 8308,
      "crisp": 8309,
      "congratulations": 8310,
      "wilted": 8311,
      "occasion": 8312,
      "quarter": 8313,
      "components": 8314,
      "sliver": 8315,
      "aeroplane": 8316,
      "appointed": 8317,
      "korean": 8318,
      "extinguisher": 8319,
      "thermometer": 8320,
      "knifes": 8321,
      "pavilion": 8322,
      "pepperonis": 8323,
      "daffodils": 8324,
      "gymnasium": 8325,
      "aid": 8326,
      "bales": 8327,
      "fasc": 8328,
      "gutter": 8329,
      "gho": 8330,
      "hil": 8331,
      "honda": 8332,
      "oll": 8333,
      "pom": 8334,
      "test": 8335,
      "tattered": 8336,
      "wan": 8337,
      "went": 8338,
      "##uing": 8339,
      "##tables": 8340,
      "##pard": 8341,
      "##cre": 8342,
      "##cove": 8343,
      "##ila": 8344,
      "##wr": 8345,
      "##xim": 8346,
      "##zed": 8347,
      "##ites": 8348,
      "##itter": 8349,
      "##eria": 8350,
      "##ata": 8351,
      "##omet": 8352,
      "##oring": 8353,
      "manner": 8354,
      "##elled": 8355,
      "##about": 8356,
      "ate": 8357,
      "atl": 8358,
      "peaks": 8359,
      "##verted": 8360,
      "ith": 8361,
      "plus": 8362,
      "plowing": 8363,
      "bod": 8364,
      "##amole": 8365,
      "updated": 8366,
      "snoo": 8367,
      "##urely": 8368,
      "blouse": 8369,
      "seg": 8370,
      "forty": 8371,
      "pizzeria": 8372,
      "##ims": 8373,
      "capp": 8374,
      "disorganized": 8375,
      "motorcyle": 8376,
      "alcove": 8377,
      "##illas": 8378,
      "##show": 8379,
      "grace": 8380,
      "scout": 8381,
      "rafts": 8382,
      "spilling": 8383,
      "##estion": 8384,
      "lotion": 8385,
      "surfboarder": 8386,
      "cellar": 8387,
      "clips": 8388,
      "cutout": 8389,
      "contr": 8390,
      "sock": 8391,
      "dirtbi": 8392,
      "cheet": 8393,
      "bringing": 8394,
      "imple": 8395,
      "##ously": 8396,
      "hanged": 8397,
      "adds": 8398,
      "unin": 8399,
      "corrid": 8400,
      "##aced": 8401,
      "##acamole": 8402,
      "wineglass": 8403,
      "remaining": 8404,
      "perching": 8405,
      "marb": 8406,
      "paints": 8407,
      "montage": 8408,
      "polished": 8409,
      "rowboats": 8410,
      "reser": 8411,
      "##isha": 8412,
      "tubes": 8413,
      "##splash": 8414,
      "patty": 8415,
      "assist": 8416,
      "squad": 8417,
      "create": 8418,
      "jumper": 8419,
      "artis": 8420,
      "clapping": 8421,
      "chopper": 8422,
      "depart": 8423,
      "##naise": 8424,
      "cube": 8425,
      "humans": 8426,
      "humorous": 8427,
      "rubs": 8428,
      "confined": 8429,
      "bulb": 8430,
      "padded": 8431,
      "entertaining": 8432,
      "##plate": 8433,
      "straightening": 8434,
      "brake": 8435,
      "russ": 8436,
      "##urfing": 8437,
      "protecting": 8438,
      "hauls": 8439,
      "##tails": 8440,
      "coastal": 8441,
      "records": 8442,
      "decals": 8443,
      "destinations": 8444,
      "inspect": 8445,
      "harnessed": 8446,
      "captures": 8447,
      "retrieving": 8448,
      "embrace": 8449,
      "flashing": 8450,
      "pallet": 8451,
      "resembles": 8452,
      "latest": 8453,
      "target": 8454,
      "appetizer": 8455,
      "untidy": 8456,
      "samples": 8457,
      "panorama": 8458,
      "drizzled": 8459,
      "reacts": 8460,
      "novelty": 8461,
      "pretzels": 8462,
      "australia": 8463,
      "zombie": 8464,
      "walnuts": 8465,
      "convenience": 8466,
      "darth": 8467,
      "lingerie": 8468,
      "lasso": 8469,
      "fourth": 8470,
      "calend": 8471,
      "floppy": 8472,
      "mayonnaise": 8473,
      "lagoon": 8474,
      "civil": 8475,
      "pesto": 8476,
      "colonial": 8477,
      "offspring": 8478,
      "chocolates": 8479,
      "embankment": 8480,
      "ghost": 8481,
      "corridor": 8482,
      "bass": 8483,
      "bale": 8484,
      "cul": 8485,
      "cgi": 8486,
      "dj": 8487,
      "dread": 8488,
      "ewe": 8489,
      "hamp": 8490,
      "hump": 8491,
      "iv": 8492,
      "iw": 8493,
      "lions": 8494,
      "mut": 8495,
      "mist": 8496,
      "oats": 8497,
      "pace": 8498,
      "vader": 8499,
      "ward": 8500,
      "##girl": 8501,
      "##ud": 8502,
      "##uum": 8503,
      "##aign": 8504,
      "##pm": 8505,
      "##pend": 8506,
      "##nette": 8507,
      "##vine": 8508,
      "##cif": 8509,
      "##mond": 8510,
      "##mpled": 8511,
      "##fish": 8512,
      "##eros": 8513,
      "thirt": 8514,
      "##etrack": 8515,
      "##chment": 8516,
      "##oupe": 8517,
      "##ida": 8518,
      "shr": 8519,
      "role": 8520,
      "ply": 8521,
      "##loaded": 8522,
      "chicks": 8523,
      "doctors": 8524,
      "parchment": 8525,
      "##cement": 8526,
      "smir": 8527,
      "smashed": 8528,
      "lazing": 8529,
      "##riate": 8530,
      "girra": 8531,
      "flick": 8532,
      "flops": 8533,
      "rif": 8534,
      "snowsh": 8535,
      "snowstorm": 8536,
      "closer": 8537,
      "grated": 8538,
      "grins": 8539,
      "surve": 8540,
      "airshow": 8541,
      "phill": 8542,
      "youngster": 8543,
      "bathed": 8544,
      "coord": 8545,
      "herb": 8546,
      "lick": 8547,
      "conn": 8548,
      "mounting": 8549,
      "disemb": 8550,
      "alb": 8551,
      "alas": 8552,
      "leis": 8553,
      "trump": 8554,
      "##shing": 8555,
      "##ship": 8556,
      "heated": 8557,
      "scrol": 8558,
      "underpass": 8559,
      "coverings": 8560,
      "sweeping": 8561,
      "floss": 8562,
      "divers": 8563,
      "suited": 8564,
      "dripping": 8565,
      "god": 8566,
      "rackett": 8567,
      "wih": 8568,
      "##resso": 8569,
      "chew": 8570,
      "brother": 8571,
      "guacamole": 8572,
      "mohawk": 8573,
      "adv": 8574,
      "restar": 8575,
      "unw": 8576,
      "cordless": 8577,
      "arc": 8578,
      "pastel": 8579,
      "herder": 8580,
      "barking": 8581,
      "breed": 8582,
      "steers": 8583,
      "allig": 8584,
      "orders": 8585,
      "intersecting": 8586,
      "tubs": 8587,
      "armed": 8588,
      "exact": 8589,
      "forklift": 8590,
      "penn": 8591,
      "entre": 8592,
      "newer": 8593,
      "engineer": 8594,
      "polaroid": 8595,
      "artic": 8596,
      "roundabout": 8597,
      "winnie": 8598,
      "turban": 8599,
      "lowers": 8600,
      "lunchbox": 8601,
      "##going": 8602,
      "dollhouse": 8603,
      "glaring": 8604,
      "stork": 8605,
      "reflect": 8606,
      "draft": 8607,
      "supply": 8608,
      "crouch": 8609,
      "crops": 8610,
      "tuck": 8611,
      "bulding": 8612,
      "pinstri": 8613,
      "scarves": 8614,
      "audio": 8615,
      "canopies": 8616,
      "emblem": 8617,
      "protection": 8618,
      "grim": 8619,
      "squatted": 8620,
      "protected": 8621,
      "hipsters": 8622,
      "wreck": 8623,
      "badge": 8624,
      "sweaters": 8625,
      "rendering": 8626,
      "decent": 8627,
      "texas": 8628,
      "timer": 8629,
      "measure": 8630,
      "lowered": 8631,
      "portions": 8632,
      "gallery": 8633,
      "clowns": 8634,
      "longh": 8635,
      "dune": 8636,
      "pouch": 8637,
      "brunette": 8638,
      "overst": 8639,
      "description": 8640,
      "kiwis": 8641,
      "maneuvers": 8642,
      "spires": 8643,
      "olympics": 8644,
      "apparel": 8645,
      "sightse": 8646,
      "##ville": 8647,
      "officials": 8648,
      "nike": 8649,
      "scooping": 8650,
      "generated": 8651,
      "ripened": 8652,
      "conditions": 8653,
      "unpaved": 8654,
      "lavatory": 8655,
      "verdant": 8656,
      "vegtables": 8657,
      "titled": 8658,
      "dye": 8659,
      "width": 8660,
      "magnetic": 8661,
      "grafitti": 8662,
      "unhap": 8663,
      "disgusting": 8664,
      "illustration": 8665,
      "straddling": 8666,
      "selecting": 8667,
      "khaki": 8668,
      "tangled": 8669,
      "plumbing": 8670,
      "textured": 8671,
      "ajar": 8672,
      "describing": 8673,
      "gorgeous": 8674,
      "espresso": 8675,
      "iwth": 8676,
      "due": 8677,
      "hon": 8678,
      "hig": 8679,
      "jour": 8680,
      "mim": 8681,
      "ny": 8682,
      "our": 8683,
      "sick": 8684,
      "session": 8685,
      "virt": 8686,
      "##uette": 8687,
      "##rings": 8688,
      "##dom": 8689,
      "##cou": 8690,
      "##card": 8691,
      "##mal": 8692,
      "##ique": 8693,
      "##wer": 8694,
      "##fted": 8695,
      "##bus": 8696,
      "##ito": 8697,
      "##erns": 8698,
      "ina": 8699,
      "ana": 8700,
      "##alia": 8701,
      "##aloupe": 8702,
      "toe": 8703,
      "toky": 8704,
      "##owl": 8705,
      "manip": 8706,
      "##oph": 8707,
      "begging": 8708,
      "tractors": 8709,
      "shift": 8710,
      "chess": 8711,
      "choose": 8712,
      "boiling": 8713,
      "parag": 8714,
      "##amin": 8715,
      "sme": 8716,
      "giraf": 8717,
      "uphol": 8718,
      "picker": 8719,
      "doggy": 8720,
      "##reeze": 8721,
      "##stones": 8722,
      "suck": 8723,
      "sucking": 8724,
      "backward": 8725,
      "backsplash": 8726,
      "overweight": 8727,
      "disney": 8728,
      "alot": 8729,
      "alike": 8730,
      "scary": 8731,
      "scape": 8732,
      "handful": 8733,
      "handlers": 8734,
      "handwr": 8735,
      "spo": 8736,
      "teac": 8737,
      "feel": 8738,
      "feast": 8739,
      "climate": 8740,
      "##ifi": 8741,
      "bunched": 8742,
      "govern": 8743,
      "hydro": 8744,
      "teddybe": 8745,
      "##dog": 8746,
      "##ressed": 8747,
      "bring": 8748,
      "guest": 8749,
      "grounds": 8750,
      "advent": 8751,
      "advan": 8752,
      "crossroad": 8753,
      "losing": 8754,
      "luggages": 8755,
      "decorates": 8756,
      "racetrack": 8757,
      "##formed": 8758,
      "contained": 8759,
      "monor": 8760,
      "sleeves": 8761,
      "purpo": 8762,
      "screened": 8763,
      "panini": 8764,
      "appre": 8765,
      "##rona": 8766,
      "speak": 8767,
      "performer": 8768,
      "cookware": 8769,
      "##spired": 8770,
      "patties": 8771,
      "geisha": 8772,
      "pedal": 8773,
      "artich": 8774,
      "smokes": 8775,
      "earrings": 8776,
      "glare": 8777,
      "strainer": 8778,
      "capital": 8779,
      "stories": 8780,
      "drab": 8781,
      "drags": 8782,
      "apartments": 8783,
      "mounds": 8784,
      "calz": 8785,
      "solo": 8786,
      "charge": 8787,
      "spectator": 8788,
      "fastened": 8789,
      "explo": 8790,
      "expensive": 8791,
      "teenaged": 8792,
      "joke": 8793,
      "joint": 8794,
      "nailed": 8795,
      "steeples": 8796,
      "brim": 8797,
      "quietly": 8798,
      "grips": 8799,
      "health": 8800,
      "examine": 8801,
      "elegantly": 8802,
      "wrecked": 8803,
      "decal": 8804,
      "rotting": 8805,
      "artistically": 8806,
      "specialty": 8807,
      "yoga": 8808,
      "competitors": 8809,
      "summit": 8810,
      "firetrucks": 8811,
      "excitedly": 8812,
      "sanit": 8813,
      "bridal": 8814,
      "ferns": 8815,
      "dunes": 8816,
      "maneuvering": 8817,
      "squirting": 8818,
      "crammed": 8819,
      "seasonings": 8820,
      "blended": 8821,
      "omelette": 8822,
      "orchids": 8823,
      "conditioner": 8824,
      "blossoms": 8825,
      "grasping": 8826,
      "internet": 8827,
      "accessible": 8828,
      "rhinoc": 8829,
      "cantaloupe": 8830,
      "pretzel": 8831,
      "gauges": 8832,
      "preserve": 8833,
      "attendants": 8834,
      "cosmet": 8835,
      "ankle": 8836,
      "contemplating": 8837,
      "eastern": 8838,
      "sequence": 8839,
      "energy": 8840,
      "rollerblading": 8841,
      "greek": 8842,
      "pyramid": 8843,
      "vigorous": 8844,
      "ethnic": 8845,
      "manuf": 8846,
      "frolicking": 8847,
      "foodstuffs": 8848,
      "cameraman": 8849,
      "implements": 8850,
      "flickr": 8851,
      "overstuffed": 8852,
      "unhappy": 8853,
      "tokyo": 8854,
      "paragl": 8855,
      "teacup": 8856,
      "agg": 8857,
      "breeze": 8858,
      "dach": 8859,
      "fru": 8860,
      "fits": 8861,
      "font": 8862,
      "gon": 8863,
      "gps": 8864,
      "ir": 8865,
      "kim": 8866,
      "kale": 8867,
      "lilies": 8868,
      "mate": 8869,
      "nasa": 8870,
      "od": 8871,
      "pages": 8872,
      "punk": 8873,
      "rare": 8874,
      "slo": 8875,
      "sack": 8876,
      "siding": 8877,
      "sib": 8878,
      "tup": 8879,
      "tart": 8880,
      "vale": 8881,
      "vio": 8882,
      "worm": 8883,
      "##gest": 8884,
      "##yd": 8885,
      "##eer": 8886,
      "##ecker": 8887,
      "##rily": 8888,
      "##nut": 8889,
      "##wich": 8890,
      "##ina": 8891,
      "tho": 8892,
      "ange": 8893,
      "toes": 8894,
      "touring": 8895,
      "never": 8896,
      "nect": 8897,
      "##utton": 8898,
      "atm": 8899,
      "pea": 8900,
      "skying": 8901,
      "shin": 8902,
      "sher": 8903,
      "shared": 8904,
      "chow": 8905,
      "boom": 8906,
      "##ands": 8907,
      "##andise": 8908,
      "##rug": 8909,
      "parka": 8910,
      "requ": 8911,
      "seap": 8912,
      "watery": 8913,
      "bystand": 8914,
      "##store": 8915,
      "##pted": 8916,
      "cobbled": 8917,
      "skim": 8918,
      "menus": 8919,
      "alien": 8920,
      "aligned": 8921,
      "slim": 8922,
      "sands": 8923,
      "glassed": 8924,
      "chairlift": 8925,
      "dew": 8926,
      "scan": 8927,
      "sweep": 8928,
      "div": 8929,
      "dial": 8930,
      "dies": 8931,
      "clas": 8932,
      "clipping": 8933,
      "runners": 8934,
      "soaking": 8935,
      "lufth": 8936,
      "refre": 8937,
      "wipes": 8938,
      "anime": 8939,
      "rested": 8940,
      "unke": 8941,
      "proh": 8942,
      "camo": 8943,
      "keych": 8944,
      "hangings": 8945,
      "coloring": 8946,
      "telephones": 8947,
      "##athing": 8948,
      "##corn": 8949,
      "##pected": 8950,
      "perpend": 8951,
      "walkers": 8952,
      "##ansa": 8953,
      "jetway": 8954,
      "muzzle": 8955,
      "brushy": 8956,
      "silo": 8957,
      "greasy": 8958,
      "sheer": 8959,
      "sheered": 8960,
      "shepard": 8961,
      "battered": 8962,
      "hazard": 8963,
      "hula": 8964,
      "engra": 8965,
      "penned": 8966,
      "creative": 8967,
      "particular": 8968,
      "##rical": 8969,
      "geomet": 8970,
      "##mpy": 8971,
      "duct": 8972,
      "ques": 8973,
      "quant": 8974,
      "jugs": 8975,
      "##scri": 8976,
      "devil": 8977,
      "harry": 8978,
      "straws": 8979,
      "ladle": 8980,
      "claws": 8981,
      "accented": 8982,
      "##perware": 8983,
      "bikinis": 8984,
      "wintery": 8985,
      "##nished": 8986,
      "further": 8987,
      "simul": 8988,
      "separating": 8989,
      "daily": 8990,
      "observed": 8991,
      "condiment": 8992,
      "john": 8993,
      "sugary": 8994,
      "cranberry": 8995,
      "chests": 8996,
      "sugared": 8997,
      "priest": 8998,
      "orderly": 8999,
      "dusted": 9000,
      "tinted": 9001,
      "embro": 9002,
      "ruins": 9003,
      "orioles": 9004,
      "fairy": 9005,
      "pandas": 9006,
      "hike": 9007,
      "hiker": 9008,
      "hikers": 9009,
      "trimming": 9010,
      "grinning": 9011,
      "actively": 9012,
      "anything": 9013,
      "kisses": 9014,
      "badly": 9015,
      "conveyer": 9016,
      "stables": 9017,
      "captain": 9018,
      "lowering": 9019,
      "dividers": 9020,
      "files": 9021,
      "torso": 9022,
      "defaced": 9023,
      "pretends": 9024,
      "##matched": 9025,
      "dropped": 9026,
      "parasailers": 9027,
      "release": 9028,
      "hunting": 9029,
      "finely": 9030,
      "fudge": 9031,
      "inviting": 9032,
      "dumping": 9033,
      "lanterns": 9034,
      "firefighter": 9035,
      "skewers": 9036,
      "trink": 9037,
      "merchandise": 9038,
      "zipper": 9039,
      "represent": 9040,
      "volkswagon": 9041,
      "llama": 9042,
      "slatted": 9043,
      "bristles": 9044,
      "dwarf": 9045,
      "puzzle": 9046,
      "shredding": 9047,
      "##uccino": 9048,
      "unpacked": 9049,
      "mario": 9050,
      "insect": 9051,
      "disposable": 9052,
      "jalapenos": 9053,
      "lollip": 9054,
      "lucky": 9055,
      "accordion": 9056,
      "doubledecker": 9057,
      "fondant": 9058,
      "buggies": 9059,
      "showcasing": 9060,
      "bodies": 9061,
      "cappuccino": 9062,
      "russian": 9063,
      "calendar": 9064,
      "rifle": 9065,
      "sightseeing": 9066,
      "higher": 9067,
      "government": 9068,
      "monorail": 9069,
      "appreci": 9070,
      "kimon": 9071,
      "tupperware": 9072,
      "angeles": 9073,
      "nectar": 9074,
      "lufthansa": 9075,
      "perpendicular": 9076,
      ",.": 9077,
      ".,": 9078,
      "aa": 9079,
      "ari": 9080,
      "damp": 9081,
      "gel": 9082,
      "gross": 9083,
      "hide": 9084,
      "ii": 9085,
      "ide": 9086,
      "jacks": 9087,
      "ko": 9088,
      "ok": 9089,
      "pris": 9090,
      "unis": 9091,
      "viet": 9092,
      "yan": 9093,
      "yama": 9094,
      "##ob": 9095,
      "##ola": 9096,
      "##oire": 9097,
      "##ga": 9098,
      "##ye": 9099,
      "##rig": 9100,
      "##priate": 9101,
      "##net": 9102,
      "##dress": 9103,
      "##cers": 9104,
      "##min": 9105,
      "##fri": 9106,
      "##books": 9107,
      "##inting": 9108,
      "##ero": 9109,
      "thee": 9110,
      "inser": 9111,
      "inverted": 9112,
      "stood": 9113,
      "##onies": 9114,
      "##ison": 9115,
      "##ili": 9116,
      "##iders": 9117,
      "shit": 9118,
      "##asse": 9119,
      "plowed": 9120,
      "chased": 9121,
      "frost": 9122,
      "batman": 9123,
      "snout": 9124,
      "outs": 9125,
      "tend": 9126,
      "tends": 9127,
      "fronted": 9128,
      "sees": 9129,
      "##ste": 9130,
      "lim": 9131,
      "motorcyl": 9132,
      "##shund": 9133,
[...]
